#include "magic_wand_model_data.h"

// We need to keep the data array aligned on some architectures.
#ifdef __has_attribute
#define HAVE_ATTRIBUTE(x) __has_attribute(x)
#else
#define HAVE_ATTRIBUTE(x) 0
#endif
#if HAVE_ATTRIBUTE(aligned) || (defined(__GNUC__) && !defined(__clang__))
#define DATA_ALIGN_ATTRIBUTE __attribute__((aligned(4)))
#else
#define DATA_ALIGN_ATTRIBUTE
#endif

const unsigned char g_magic_wand_model_data[] DATA_ALIGN_ATTRIBUTE = {
  // Paste the data of the char array in `src/model.cc` here
  0x1c, 0x00, 0x00, 0x00, 0x54, 0x46, 0x4c, 0x33, 0x14, 0x00, 0x20, 0x00,
  0x04, 0x00, 0x08, 0x00, 0x0c, 0x00, 0x10, 0x00, 0x14, 0x00, 0x00, 0x00,
  0x18, 0x00, 0x1c, 0x00, 0x14, 0x00, 0x00, 0x00, 0x03, 0x00, 0x00, 0x00,
  0x18, 0x00, 0x00, 0x00, 0x2c, 0x00, 0x00, 0x00, 0xd8, 0x00, 0x00, 0x00,
  0x2c, 0x00, 0x00, 0x00, 0x80, 0x00, 0x00, 0x00, 0x78, 0x00, 0x00, 0x00,
  0x05, 0x00, 0x00, 0x00, 0x28, 0x07, 0x00, 0x00, 0x44, 0x06, 0x00, 0x00,
  0xbc, 0x03, 0x00, 0x00, 0xf8, 0x02, 0x00, 0x00, 0xac, 0x01, 0x00, 0x00,
  0x01, 0x00, 0x00, 0x00, 0xd0, 0x00, 0x00, 0x00, 0x14, 0x00, 0x00, 0x00,
  0xdc, 0x32, 0x00, 0x00, 0xd8, 0x32, 0x00, 0x00, 0xd0, 0x31, 0x00, 0x00,
  0x1c, 0x31, 0x00, 0x00, 0x74, 0x30, 0x00, 0x00, 0xfc, 0x2f, 0x00, 0x00,
  0x90, 0x2f, 0x00, 0x00, 0x40, 0x13, 0x00, 0x00, 0xec, 0x11, 0x00, 0x00,
  0x10, 0x10, 0x00, 0x00, 0xb4, 0x07, 0x00, 0x00, 0xb0, 0x32, 0x00, 0x00,
  0xac, 0x32, 0x00, 0x00, 0xa8, 0x32, 0x00, 0x00, 0xa4, 0x32, 0x00, 0x00,
  0xa0, 0x32, 0x00, 0x00, 0x9c, 0x32, 0x00, 0x00, 0x98, 0x32, 0x00, 0x00,
  0x94, 0x32, 0x00, 0x00, 0x3c, 0x00, 0x00, 0x00, 0x00, 0x00, 0x00, 0x00,
  0x01, 0x00, 0x00, 0x00, 0x0c, 0x00, 0x00, 0x00, 0x08, 0x00, 0x0c, 0x00,
  0x04, 0x00, 0x08, 0x00, 0x08, 0x00, 0x00, 0x00, 0x08, 0x00, 0x00, 0x00,
  0x13, 0x00, 0x00, 0x00, 0x13, 0x00, 0x00, 0x00, 0x6d, 0x69, 0x6e, 0x5f,
  0x72, 0x75, 0x6e, 0x74, 0x69, 0x6d, 0x65, 0x5f, 0x76, 0x65, 0x72, 0x73,
  0x69, 0x6f, 0x6e, 0x00, 0xb6, 0xce, 0xff, 0xff, 0x04, 0x00, 0x00, 0x00,
  0x10, 0x00, 0x00, 0x00, 0x31, 0x2e, 0x35, 0x2e, 0x30, 0x00, 0x00, 0x00,
  0x00, 0x00, 0x00, 0x00, 0x00, 0x00, 0x00, 0x00, 0x0f, 0x00, 0x00, 0x00,
  0x4d, 0x4c, 0x49, 0x52, 0x20, 0x43, 0x6f, 0x6e, 0x76, 0x65, 0x72, 0x74,
  0x65, 0x64, 0x2e, 0x00, 0x00, 0x00, 0x0e, 0x00, 0x18, 0x00, 0x04, 0x00,
  0x08, 0x00, 0x0c, 0x00, 0x10, 0x00, 0x14, 0x00, 0x0e, 0x00, 0x00, 0x00,
  0x14, 0x00, 0x00, 0x00, 0x5c, 0x00, 0x00, 0x00, 0x60, 0x00, 0x00, 0x00,
  0x64, 0x00, 0x00, 0x00, 0x84, 0x00, 0x00, 0x00, 0x12, 0x00, 0x00, 0x00,
  0x9c, 0x31, 0x00, 0x00, 0x2c, 0x31, 0x00, 0x00, 0x88, 0x30, 0x00, 0x00,
  0xe0, 0x2f, 0x00, 0x00, 0x38, 0x2f, 0x00, 0x00, 0xd4, 0x2e, 0x00, 0x00,
  0x6c, 0x2e, 0x00, 0x00, 0x18, 0x12, 0x00, 0x00, 0xbc, 0x10, 0x00, 0x00,
  0xe0, 0x0e, 0x00, 0x00, 0x0c, 0x06, 0x00, 0x00, 0x28, 0x05, 0x00, 0x00,
  0xe8, 0x03, 0x00, 0x00, 0x3c, 0x03, 0x00, 0x00, 0x98, 0x02, 0x00, 0x00,
  0xd4, 0x01, 0x00, 0x00, 0x10, 0x01, 0x00, 0x00, 0x84, 0x00, 0x00, 0x00,
  0x01, 0x00, 0x00, 0x00, 0x00, 0x00, 0x00, 0x00, 0x01, 0x00, 0x00, 0x00,
  0x11, 0x00, 0x00, 0x00, 0x08, 0x00, 0x00, 0x00, 0x74, 0x05, 0x00, 0x00,
  0x94, 0x04, 0x00, 0x00, 0x78, 0x03, 0x00, 0x00, 0xbc, 0x02, 0x00, 0x00,
  0x30, 0x02, 0x00, 0x00, 0x50, 0x01, 0x00, 0x00, 0xa8, 0x00, 0x00, 0x00,
  0x10, 0x00, 0x00, 0x00, 0x04, 0x00, 0x00, 0x00, 0x6d, 0x61, 0x69, 0x6e,
  0x00, 0x00, 0x00, 0x00, 0x7a, 0xff, 0xff, 0xff, 0x00, 0x00, 0x00, 0x09,
  0x04, 0x00, 0x00, 0x00, 0x1c, 0x00, 0x00, 0x00, 0x10, 0x00, 0x00, 0x00,
  0x04, 0x00, 0x00, 0x00, 0xb2, 0xcf, 0xff, 0xff, 0x00, 0x00, 0x80, 0x3f,
  0x01, 0x00, 0x00, 0x00, 0x11, 0x00, 0x00, 0x00, 0x01, 0x00, 0x00, 0x00,
  0x10, 0x00, 0x00, 0x00, 0xa0, 0xfa, 0xff, 0xff, 0x19, 0x00, 0x00, 0x00,
  0x00, 0x00, 0x00, 0x19, 0x01, 0x00, 0x00, 0x00, 0x40, 0xcf, 0xff, 0xff,
  0x14, 0x00, 0x00, 0x00, 0x12, 0x00, 0x00, 0x00, 0x18, 0x00, 0x00, 0x00,
  0x30, 0x00, 0x00, 0x00, 0x20, 0x00, 0x00, 0x00, 0x02, 0x00, 0x00, 0x00,
  0x01, 0x00, 0x00, 0x00, 0x04, 0x00, 0x00, 0x00, 0x08, 0x00, 0x00, 0x00,
  0x49, 0x64, 0x65, 0x6e, 0x74, 0x69, 0x74, 0x79, 0x00, 0x00, 0x00, 0x00,
  0x02, 0x00, 0x00, 0x00, 0xff, 0xff, 0xff, 0xff, 0x04, 0x00, 0x00, 0x00,
  0x24, 0xd0, 0xff, 0xff, 0x00, 0x00, 0x0e, 0x00, 0x18, 0x00, 0x08, 0x00,
  0x0c, 0x00, 0x10, 0x00, 0x07, 0x00, 0x14, 0x00, 0x0e, 0x00, 0x00, 0x00,
  0x00, 0x00, 0x00, 0x08, 0x03, 0x00, 0x00, 0x00, 0x18, 0x00, 0x00, 0x00,
  0x0c, 0x00, 0x00, 0x00, 0x04, 0x00, 0x00, 0x00, 0x40, 0xcf, 0xff, 0xff,
  0x01, 0x00, 0x00, 0x00, 0x10, 0x00, 0x00, 0x00, 0x03, 0x00, 0x00, 0x00,
  0x0f, 0x00, 0x00, 0x00, 0x07, 0x00, 0x00, 0x00, 0x04, 0x00, 0x00, 0x00,
  0xc8, 0xcf, 0xff, 0xff, 0x14, 0x00, 0x00, 0x00, 0x11, 0x00, 0x00, 0x00,
  0x18, 0x00, 0x00, 0x00, 0x5c, 0x00, 0x00, 0x00, 0x4c, 0x00, 0x00, 0x00,
  0x02, 0x00, 0x00, 0x00, 0x01, 0x00, 0x00, 0x00, 0x04, 0x00, 0x00, 0x00,
  0x34, 0x00, 0x00, 0x00, 0x73, 0x65, 0x71, 0x75, 0x65, 0x6e, 0x74, 0x69,
  0x61, 0x6c, 0x2f, 0x64, 0x65, 0x6e, 0x73, 0x65, 0x5f, 0x31, 0x2f, 0x4d,
  0x61, 0x74, 0x4d, 0x75, 0x6c, 0x3b, 0x73, 0x65, 0x71, 0x75, 0x65, 0x6e,
  0x74, 0x69, 0x61, 0x6c, 0x2f, 0x64, 0x65, 0x6e, 0x73, 0x65, 0x5f, 0x31,
  0x2f, 0x42, 0x69, 0x61, 0x73, 0x41, 0x64, 0x64, 0x00, 0x00, 0x00, 0x00,
  0x02, 0x00, 0x00, 0x00, 0xff, 0xff, 0xff, 0xff, 0x04, 0x00, 0x00, 0x00,
  0xc8, 0xcf, 0xff, 0xff, 0xda, 0xfc, 0xff, 0xff, 0x00, 0x00, 0x00, 0x08,
  0x03, 0x00, 0x00, 0x00, 0x24, 0x00, 0x00, 0x00, 0x18, 0x00, 0x00, 0x00,
  0x0c, 0x00, 0x00, 0x00, 0x00, 0x00, 0x06, 0x00, 0x08, 0x00, 0x07, 0x00,
  0x06, 0x00, 0x00, 0x00, 0x00, 0x00, 0x00, 0x01, 0x01, 0x00, 0x00, 0x00,
  0x0f, 0x00, 0x00, 0x00, 0x03, 0x00, 0x00, 0x00, 0x0e, 0x00, 0x00, 0x00,
  0x06, 0x00, 0x00, 0x00, 0x03, 0x00, 0x00, 0x00, 0xe8, 0xfb, 0xff, 0xff,
  0x09, 0x00, 0x00, 0x00, 0x00, 0x00, 0x00, 0x09, 0x01, 0x00, 0x00, 0x00,
  0x88, 0xd0, 0xff, 0xff, 0x14, 0x00, 0x00, 0x00, 0x10, 0x00, 0x00, 0x00,
  0x18, 0x00, 0x00, 0x00, 0x6c, 0x00, 0x00, 0x00, 0x5c, 0x00, 0x00, 0x00,
  0x02, 0x00, 0x00, 0x00, 0x01, 0x00, 0x00, 0x00, 0x10, 0x00, 0x00, 0x00,
  0x46, 0x00, 0x00, 0x00, 0x73, 0x65, 0x71, 0x75, 0x65, 0x6e, 0x74, 0x69,
  0x61, 0x6c, 0x2f, 0x64, 0x65, 0x6e, 0x73, 0x65, 0x2f, 0x4d, 0x61, 0x74,
  0x4d, 0x75, 0x6c, 0x3b, 0x73, 0x65, 0x71, 0x75, 0x65, 0x6e, 0x74, 0x69,
  0x61, 0x6c, 0x2f, 0x64, 0x65, 0x6e, 0x73, 0x65, 0x2f, 0x52, 0x65, 0x6c,
  0x75, 0x3b, 0x73, 0x65, 0x71, 0x75, 0x65, 0x6e, 0x74, 0x69, 0x61, 0x6c,
  0x2f, 0x64, 0x65, 0x6e, 0x73, 0x65, 0x2f, 0x42, 0x69, 0x61, 0x73, 0x41,
  0x64, 0x64, 0x00, 0x00, 0x02, 0x00, 0x00, 0x00, 0xff, 0xff, 0xff, 0xff,
  0x10, 0x00, 0x00, 0x00, 0xa8, 0xd1, 0xff, 0xff, 0x00, 0x00, 0x0a, 0x00,
  0x10, 0x00, 0x04, 0x00, 0x08, 0x00, 0x0c, 0x00, 0x0a, 0x00, 0x00, 0x00,
  0x02, 0x00, 0x00, 0x00, 0x10, 0x00, 0x00, 0x00, 0x04, 0x00, 0x00, 0x00,
  0x01, 0x00, 0x00, 0x00, 0x0e, 0x00, 0x00, 0x00, 0x02, 0x00, 0x00, 0x00,
  0x0d, 0x00, 0x00, 0x00, 0x05, 0x00, 0x00, 0x00, 0xa8, 0xfc, 0xff, 0xff,
  0x16, 0x00, 0x00, 0x00, 0x00, 0x00, 0x00, 0x16, 0x01, 0x00, 0x00, 0x00,
  0x48, 0xd1, 0xff, 0xff, 0x14, 0x00, 0x00, 0x00, 0x0f, 0x00, 0x00, 0x00,
  0x18, 0x00, 0x00, 0x00, 0x40, 0x00, 0x00, 0x00, 0x30, 0x00, 0x00, 0x00,
  0x02, 0x00, 0x00, 0x00, 0x01, 0x00, 0x00, 0x00, 0x70, 0x00, 0x00, 0x00,
  0x1a, 0x00, 0x00, 0x00, 0x73, 0x65, 0x71, 0x75, 0x65, 0x6e, 0x74, 0x69,
  0x61, 0x6c, 0x2f, 0x66, 0x6c, 0x61, 0x74, 0x74, 0x65, 0x6e, 0x2f, 0x52,
  0x65, 0x73, 0x68, 0x61, 0x70, 0x65, 0x00, 0x00, 0x02, 0x00, 0x00, 0x00,
  0xff, 0xff, 0xff, 0xff, 0x70, 0x00, 0x00, 0x00, 0x2c, 0xd1, 0xff, 0xff,
  0x3e, 0xfe, 0xff, 0xff, 0x00, 0x00, 0x00, 0x05, 0x01, 0x00, 0x00, 0x00,
  0x38, 0x00, 0x00, 0x00, 0x2c, 0x00, 0x00, 0x00, 0x14, 0x00, 0x00, 0x00,
  0x00, 0x00, 0x0e, 0x00, 0x14, 0x00, 0x00, 0x00, 0x10, 0x00, 0x0c, 0x00,
  0x08, 0x00, 0x04, 0x00, 0x0e, 0x00, 0x00, 0x00, 0x03, 0x00, 0x00, 0x00,
  0x01, 0x00, 0x00, 0x00, 0x03, 0x00, 0x00, 0x00, 0x01, 0x00, 0x00, 0x00,
  0x01, 0x00, 0x00, 0x00, 0x0d, 0x00, 0x00, 0x00, 0x01, 0x00, 0x00, 0x00,
  0x0c, 0x00, 0x00, 0x00, 0xe8, 0xd1, 0xff, 0xff, 0x14, 0x00, 0x00, 0x00,
  0x0e, 0x00, 0x00, 0x00, 0x20, 0x00, 0x00, 0x00, 0x58, 0x00, 0x00, 0x00,
  0x40, 0x00, 0x00, 0x00, 0x04, 0x00, 0x00, 0x00, 0x01, 0x00, 0x00, 0x00,
  0x07, 0x00, 0x00, 0x00, 0x01, 0x00, 0x00, 0x00, 0x10, 0x00, 0x00, 0x00,
  0x22, 0x00, 0x00, 0x00, 0x73, 0x65, 0x71, 0x75, 0x65, 0x6e, 0x74, 0x69,
  0x61, 0x6c, 0x2f, 0x6d, 0x61, 0x78, 0x5f, 0x70, 0x6f, 0x6f, 0x6c, 0x69,
  0x6e, 0x67, 0x32, 0x64, 0x5f, 0x31, 0x2f, 0x4d, 0x61, 0x78, 0x50, 0x6f,
  0x6f, 0x6c, 0x00, 0x00, 0x04, 0x00, 0x00, 0x00, 0xff, 0xff, 0xff, 0xff,
  0x07, 0x00, 0x00, 0x00, 0x01, 0x00, 0x00, 0x00, 0x10, 0x00, 0x00, 0x00,
  0xe4, 0xd1, 0xff, 0xff, 0x1a, 0xfe, 0xff, 0xff, 0x00, 0x00, 0x00, 0x01,
  0x24, 0x00, 0x00, 0x00, 0x18, 0x00, 0x00, 0x00, 0x04, 0x00, 0x00, 0x00,
  0x0c, 0xfe, 0xff, 0xff, 0x01, 0x00, 0x00, 0x00, 0x01, 0x00, 0x00, 0x00,
  0x00, 0x00, 0x00, 0x01, 0x01, 0x00, 0x00, 0x00, 0x0c, 0x00, 0x00, 0x00,
  0x03, 0x00, 0x00, 0x00, 0x0b, 0x00, 0x00, 0x00, 0x09, 0x00, 0x00, 0x00,
  0x02, 0x00, 0x00, 0x00, 0x90, 0xd2, 0xff, 0xff, 0x14, 0x00, 0x00, 0x00,
  0x0d, 0x00, 0x00, 0x00, 0x20, 0x00, 0x00, 0x00, 0xb8, 0x00, 0x00, 0x00,
  0xa0, 0x00, 0x00, 0x00, 0x04, 0x00, 0x00, 0x00, 0x01, 0x00, 0x00, 0x00,
  0x15, 0x00, 0x00, 0x00, 0x01, 0x00, 0x00, 0x00, 0x10, 0x00, 0x00, 0x00,
  0x83, 0x00, 0x00, 0x00, 0x73, 0x65, 0x71, 0x75, 0x65, 0x6e, 0x74, 0x69,
  0x61, 0x6c, 0x2f, 0x63, 0x6f, 0x6e, 0x76, 0x32, 0x64, 0x5f, 0x31, 0x2f,
  0x52, 0x65, 0x6c, 0x75, 0x3b, 0x73, 0x65, 0x71, 0x75, 0x65, 0x6e, 0x74,
  0x69, 0x61, 0x6c, 0x2f, 0x63, 0x6f, 0x6e, 0x76, 0x32, 0x64, 0x5f, 0x31,
  0x2f, 0x42, 0x69, 0x61, 0x73, 0x41, 0x64, 0x64, 0x3b, 0x73, 0x65, 0x71,
  0x75, 0x65, 0x6e, 0x74, 0x69, 0x61, 0x6c, 0x2f, 0x63, 0x6f, 0x6e, 0x76,
  0x32, 0x64, 0x5f, 0x31, 0x2f, 0x43, 0x6f, 0x6e, 0x76, 0x32, 0x44, 0x3b,
  0x73, 0x65, 0x71, 0x75, 0x65, 0x6e, 0x74, 0x69, 0x61, 0x6c, 0x2f, 0x63,
  0x6f, 0x6e, 0x76, 0x32, 0x64, 0x5f, 0x31, 0x2f, 0x42, 0x69, 0x61, 0x73,
  0x41, 0x64, 0x64, 0x2f, 0x52, 0x65, 0x61, 0x64, 0x56, 0x61, 0x72, 0x69,
  0x61, 0x62, 0x6c, 0x65, 0x4f, 0x70, 0x2f, 0x72, 0x65, 0x73, 0x6f, 0x75,
  0x72, 0x63, 0x65, 0x00, 0x04, 0x00, 0x00, 0x00, 0xff, 0xff, 0xff, 0xff,
  0x15, 0x00, 0x00, 0x00, 0x01, 0x00, 0x00, 0x00, 0x10, 0x00, 0x00, 0x00,
  0xfc, 0xd3, 0xff, 0xff, 0x00, 0x00, 0x0e, 0x00, 0x1a, 0x00, 0x08, 0x00,
  0x0c, 0x00, 0x10, 0x00, 0x07, 0x00, 0x14, 0x00, 0x0e, 0x00, 0x00, 0x00,
  0x00, 0x00, 0x00, 0x05, 0x01, 0x00, 0x00, 0x00, 0x3c, 0x00, 0x00, 0x00,
  0x30, 0x00, 0x00, 0x00, 0x14, 0x00, 0x00, 0x00, 0x00, 0x00, 0x0e, 0x00,
  0x18, 0x00, 0x17, 0x00, 0x10, 0x00, 0x0c, 0x00, 0x08, 0x00, 0x04, 0x00,
  0x0e, 0x00, 0x00, 0x00, 0x03, 0x00, 0x00, 0x00, 0x03, 0x00, 0x00, 0x00,
  0x03, 0x00, 0x00, 0x00, 0x03, 0x00, 0x00, 0x00, 0x00, 0x00, 0x00, 0x01,
  0x01, 0x00, 0x00, 0x00, 0x0b, 0x00, 0x00, 0x00, 0x01, 0x00, 0x00, 0x00,
  0x0a, 0x00, 0x00, 0x00, 0x2c, 0xff, 0xff, 0xff, 0x11, 0x00, 0x00, 0x00,
  0x00, 0x00, 0x00, 0x11, 0x01, 0x00, 0x00, 0x00, 0xcc, 0xd3, 0xff, 0xff,
  0x14, 0x00, 0x00, 0x00, 0x0c, 0x00, 0x00, 0x00, 0x20, 0x00, 0x00, 0x00,
  0x58, 0x00, 0x00, 0x00, 0x40, 0x00, 0x00, 0x00, 0x04, 0x00, 0x00, 0x00,
  0x01, 0x00, 0x00, 0x00, 0x15, 0x00, 0x00, 0x00, 0x01, 0x00, 0x00, 0x00,
  0x08, 0x00, 0x00, 0x00, 0x20, 0x00, 0x00, 0x00, 0x73, 0x65, 0x71, 0x75,
  0x65, 0x6e, 0x74, 0x69, 0x61, 0x6c, 0x2f, 0x6d, 0x61, 0x78, 0x5f, 0x70,
  0x6f, 0x6f, 0x6c, 0x69, 0x6e, 0x67, 0x32, 0x64, 0x2f, 0x4d, 0x61, 0x78,
  0x50, 0x6f, 0x6f, 0x6c, 0x00, 0x00, 0x00, 0x00, 0x04, 0x00, 0x00, 0x00,
  0xff, 0xff, 0xff, 0xff, 0x15, 0x00, 0x00, 0x00, 0x01, 0x00, 0x00, 0x00,
  0x08, 0x00, 0x00, 0x00, 0xd8, 0xd4, 0xff, 0xff, 0x00, 0x00, 0x0e, 0x00,
  0x14, 0x00, 0x00, 0x00, 0x08, 0x00, 0x0c, 0x00, 0x07, 0x00, 0x10, 0x00,
  0x0e, 0x00, 0x00, 0x00, 0x00, 0x00, 0x00, 0x01, 0x30, 0x00, 0x00, 0x00,
  0x24, 0x00, 0x00, 0x00, 0x10, 0x00, 0x00, 0x00, 0x0c, 0x00, 0x10, 0x00,
  0x00, 0x00, 0x04, 0x00, 0x08, 0x00, 0x0f, 0x00, 0x0c, 0x00, 0x00, 0x00,
  0x01, 0x00, 0x00, 0x00, 0x01, 0x00, 0x00, 0x00, 0x00, 0x00, 0x00, 0x01,
  0x01, 0x00, 0x00, 0x00, 0x0a, 0x00, 0x00, 0x00, 0x03, 0x00, 0x00, 0x00,
  0x00, 0x00, 0x00, 0x00, 0x08, 0x00, 0x00, 0x00, 0x01, 0x00, 0x00, 0x00,
  0x0c, 0x00, 0x10, 0x00, 0x0b, 0x00, 0x00, 0x00, 0x0c, 0x00, 0x04, 0x00,
  0x0c, 0x00, 0x00, 0x00, 0x03, 0x00, 0x00, 0x00, 0x00, 0x00, 0x00, 0x03,
  0x01, 0x00, 0x00, 0x00, 0xac, 0xd4, 0xff, 0xff, 0x14, 0x00, 0x00, 0x00,
  0x0b, 0x00, 0x00, 0x00, 0x20, 0x00, 0x00, 0x00, 0xb0, 0x00, 0x00, 0x00,
  0x98, 0x00, 0x00, 0x00, 0x04, 0x00, 0x00, 0x00, 0x01, 0x00, 0x00, 0x00,
  0x40, 0x00, 0x00, 0x00, 0x03, 0x00, 0x00, 0x00, 0x08, 0x00, 0x00, 0x00,
  0x7b, 0x00, 0x00, 0x00, 0x73, 0x65, 0x71, 0x75, 0x65, 0x6e, 0x74, 0x69,
  0x61, 0x6c, 0x2f, 0x63, 0x6f, 0x6e, 0x76, 0x32, 0x64, 0x2f, 0x52, 0x65,
  0x6c, 0x75, 0x3b, 0x73, 0x65, 0x71, 0x75, 0x65, 0x6e, 0x74, 0x69, 0x61,
  0x6c, 0x2f, 0x63, 0x6f, 0x6e, 0x76, 0x32, 0x64, 0x2f, 0x42, 0x69, 0x61,
  0x73, 0x41, 0x64, 0x64, 0x3b, 0x73, 0x65, 0x71, 0x75, 0x65, 0x6e, 0x74,
  0x69, 0x61, 0x6c, 0x2f, 0x63, 0x6f, 0x6e, 0x76, 0x32, 0x64, 0x2f, 0x43,
  0x6f, 0x6e, 0x76, 0x32, 0x44, 0x3b, 0x73, 0x65, 0x71, 0x75, 0x65, 0x6e,
  0x74, 0x69, 0x61, 0x6c, 0x2f, 0x63, 0x6f, 0x6e, 0x76, 0x32, 0x64, 0x2f,
  0x42, 0x69, 0x61, 0x73, 0x41, 0x64, 0x64, 0x2f, 0x52, 0x65, 0x61, 0x64,
  0x56, 0x61, 0x72, 0x69, 0x61, 0x62, 0x6c, 0x65, 0x4f, 0x70, 0x2f, 0x72,
  0x65, 0x73, 0x6f, 0x75, 0x72, 0x63, 0x65, 0x00, 0x04, 0x00, 0x00, 0x00,
  0xff, 0xff, 0xff, 0xff, 0x40, 0x00, 0x00, 0x00, 0x03, 0x00, 0x00, 0x00,
  0x08, 0x00, 0x00, 0x00, 0x00, 0xd5, 0xff, 0xff, 0x0a, 0xd6, 0xff, 0xff,
  0x04, 0x00, 0x00, 0x00, 0x00, 0x08, 0x00, 0x00, 0x74, 0xe4, 0x19, 0xbe,
  0x03, 0xd1, 0xe2, 0xbd, 0x61, 0x27, 0xd4, 0x3c, 0x2d, 0xf9, 0x45, 0x3e,
  0x70, 0x27, 0x4f, 0xbe, 0x3f, 0x6b, 0xe9, 0xbd, 0xdc, 0x10, 0x49, 0x3e,
  0x54, 0x42, 0x4f, 0xbe, 0x00, 0x65, 0xb2, 0xbd, 0x46, 0x09, 0x5b, 0xbd,
  0xbe, 0xac, 0xf2, 0xbb, 0xee, 0x99, 0xdc, 0xbc, 0xb6, 0x01, 0x39, 0xbe,
  0x39, 0xbc, 0x40, 0x3d, 0xdd, 0x79, 0x35, 0x3e, 0x4f, 0xa7, 0x7a, 0xbe,
  0xdd, 0x0a, 0x81, 0xbd, 0xa4, 0xcc, 0xfa, 0xbd, 0xa8, 0xd6, 0x60, 0xbd,
  0x24, 0xa6, 0x61, 0xbc, 0xf1, 0xe4, 0x9f, 0xbe, 0xd3, 0xc8, 0x9b, 0x3d,
  0x1a, 0x92, 0x8c, 0x3d, 0x6b, 0x7d, 0x88, 0xbe, 0xe1, 0xa1, 0x1a, 0x3e,
  0x09, 0xb6, 0xde, 0xbe, 0xa3, 0x92, 0x95, 0xbe, 0xf7, 0x99, 0xa0, 0xbe,
  0xeb, 0x38, 0xcd, 0xbe, 0x13, 0xb0, 0xaa, 0xbd, 0xdf, 0x4e, 0x03, 0xbe,
  0xfc, 0xca, 0x3f, 0xbe, 0x52, 0x8a, 0x62, 0x3d, 0x81, 0xdf, 0xab, 0xbe,
  0x9e, 0x52, 0xae, 0xbe, 0x72, 0xeb, 0x53, 0xbe, 0xa1, 0x89, 0x4e, 0xbe,
  0x62, 0x65, 0x85, 0x3d, 0x89, 0x4d, 0x09, 0xbe, 0xfc, 0x27, 0x86, 0x3c,
  0x10, 0x9f, 0xde, 0xbd, 0xcd, 0x95, 0xbe, 0xbe, 0xdb, 0xd5, 0x1f, 0xbf,
  0x45, 0x6a, 0x5e, 0xbe, 0x9a, 0x5e, 0x8f, 0xbe, 0x45, 0x92, 0xe3, 0x3e,
  0xd3, 0xfc, 0x88, 0xbe, 0x9c, 0x7c, 0x94, 0xbd, 0x92, 0x86, 0x72, 0x3d,
  0xbd, 0xfc, 0xb9, 0x3c, 0x05, 0x0e, 0x1e, 0xbe, 0x54, 0x9b, 0xc7, 0xbe,
  0x64, 0x91, 0xaa, 0xbd, 0x39, 0x80, 0x94, 0xbe, 0xa7, 0xb2, 0x2e, 0xbe,
  0x60, 0xa1, 0x93, 0x3d, 0xcb, 0x8a, 0x63, 0x3e, 0x80, 0x44, 0xd6, 0xbc,
  0x20, 0xd3, 0x03, 0x3d, 0x2a, 0x2d, 0x84, 0x3d, 0xea, 0x95, 0x73, 0x3e,
  0xe4, 0xbb, 0x41, 0xbe, 0xca, 0xfd, 0x3a, 0xbd, 0x95, 0xf3, 0x20, 0xbe,
  0xba, 0x6c, 0xc5, 0x3d, 0x92, 0xe7, 0x80, 0xbe, 0x7f, 0xa4, 0x8b, 0xbd,
  0x84, 0xc8, 0xaf, 0xbd, 0x0b, 0x64, 0x9c, 0x3e, 0x07, 0x43, 0xd9, 0xbd,
  0xfa, 0x0c, 0xf4, 0x3d, 0x92, 0xbf, 0xc2, 0x3d, 0xcc, 0x14, 0xc1, 0xbd,
  0x41, 0xc9, 0x1a, 0xbe, 0x64, 0xe6, 0xdc, 0x3c, 0xc7, 0x6d, 0x99, 0xbe,
  0x48, 0x00, 0x81, 0xbb, 0x16, 0x7f, 0x18, 0xbe, 0xae, 0x76, 0x77, 0x3e,
  0xec, 0x94, 0xa7, 0xbe, 0xd8, 0x3f, 0xd4, 0x3d, 0xcf, 0x59, 0x7d, 0xbe,
  0x0b, 0x49, 0x15, 0xbd, 0x03, 0x3d, 0x99, 0xbe, 0x7c, 0x41, 0xd8, 0x3c,
  0x1d, 0x83, 0x83, 0x3c, 0x00, 0x15, 0xbc, 0xbc, 0x58, 0xff, 0xb2, 0xbd,
  0x14, 0x24, 0xc7, 0xbd, 0x33, 0x50, 0x71, 0xbe, 0x23, 0xd0, 0xaa, 0x3d,
  0x2a, 0x38, 0xa6, 0xbe, 0x67, 0x1b, 0x8c, 0x3e, 0x43, 0x8c, 0x5d, 0x3e,
  0xbe, 0xee, 0xb5, 0x3c, 0x68, 0xf8, 0x51, 0xbd, 0x0b, 0xb1, 0xca, 0xbc,
  0x44, 0xef, 0x62, 0x3e, 0x77, 0x85, 0x63, 0x3d, 0x4c, 0xb4, 0x47, 0x3d,
  0x43, 0xcb, 0xf3, 0x3d, 0x56, 0xa9, 0xfd, 0xbc, 0x79, 0x4a, 0xc1, 0x3d,
  0x97, 0x06, 0xa3, 0xbe, 0x36, 0x4f, 0x47, 0x3e, 0x9e, 0x9e, 0x29, 0xbd,
  0x51, 0x6e, 0x9a, 0xbd, 0x29, 0x69, 0xed, 0xbc, 0xf5, 0x9d, 0x5c, 0x3d,
  0xfd, 0x07, 0x96, 0x3e, 0x1b, 0xde, 0x10, 0xbd, 0x32, 0x9c, 0xc0, 0xbc,
  0xac, 0xa2, 0x0d, 0xbe, 0xe7, 0x95, 0x97, 0xbe, 0xe2, 0xbb, 0x2a, 0xbe,
  0xed, 0xef, 0x94, 0xbd, 0x0a, 0x69, 0x29, 0x3e, 0x17, 0x6c, 0xa0, 0x3e,
  0x45, 0xd0, 0x58, 0xbd, 0xc0, 0x7f, 0xd8, 0x3d, 0x4d, 0xb6, 0xbf, 0xbe,
  0x35, 0xeb, 0xc9, 0xbe, 0x61, 0x02, 0x67, 0xbe, 0x01, 0x34, 0xfd, 0xbd,
  0x28, 0x6a, 0xcc, 0xbe, 0xe6, 0x55, 0x0f, 0xbd, 0x0f, 0xff, 0x00, 0xbe,
  0x58, 0xf0, 0x93, 0xbd, 0x18, 0x83, 0x2f, 0x3e, 0xc7, 0x1e, 0x91, 0xbe,
  0xf2, 0x38, 0x4c, 0xbc, 0xe3, 0xcf, 0x49, 0xbe, 0xc0, 0x9b, 0xfb, 0xbe,
  0x71, 0x0d, 0x4d, 0xbe, 0xdb, 0x19, 0x2c, 0x3e, 0x63, 0x8b, 0x7d, 0xbc,
  0x54, 0x57, 0x84, 0x3d, 0xd0, 0xa4, 0xd3, 0xbe, 0x6f, 0x57, 0x42, 0xbe,
  0xae, 0x31, 0x8b, 0xbe, 0x78, 0x81, 0x06, 0xbe, 0x52, 0x1b, 0x99, 0xbe,
  0xcc, 0x97, 0x1a, 0xbd, 0x93, 0xcb, 0xa4, 0x3e, 0x1f, 0x91, 0x87, 0xbd,
  0x7a, 0x0d, 0x19, 0xbf, 0x0f, 0x80, 0x9b, 0x3d, 0xae, 0xc1, 0xa2, 0xbd,
  0x9f, 0x55, 0x88, 0xbe, 0x8c, 0x24, 0xa7, 0xbe, 0x3e, 0xe2, 0x8c, 0x3e,
  0xcf, 0xdb, 0x08, 0xbe, 0x04, 0x06, 0x2f, 0x3d, 0xb3, 0x84, 0x00, 0xbf,
  0xdb, 0x60, 0xaf, 0x3d, 0x3b, 0xcc, 0xaa, 0xbe, 0xac, 0xcb, 0xa0, 0xbe,
  0x56, 0x16, 0x8a, 0xbe, 0x1d, 0x4e, 0xa6, 0xbc, 0x36, 0xb0, 0x66, 0x3d,
  0xe6, 0x5a, 0x07, 0xbe, 0xc3, 0x9c, 0xa3, 0xbd, 0x7a, 0x74, 0x4c, 0xbe,
  0x56, 0xc2, 0x48, 0x3e, 0x9b, 0x22, 0x13, 0xbd, 0xc7, 0x86, 0x98, 0xbd,
  0xd7, 0x4a, 0xe2, 0xbd, 0x18, 0xef, 0xa8, 0xbd, 0xbb, 0x4a, 0x05, 0x3e,
  0x0c, 0x1c, 0x3e, 0xbe, 0x6a, 0x54, 0x93, 0xbd, 0x22, 0x33, 0x73, 0x3e,
  0x23, 0x66, 0xa6, 0x3d, 0x70, 0xfa, 0xa1, 0xbc, 0x56, 0xa6, 0x0e, 0xbe,
  0x40, 0x87, 0x12, 0x3d, 0x48, 0x3a, 0x4a, 0xbe, 0x3a, 0xed, 0x5a, 0xbe,
  0x63, 0xe7, 0xd8, 0x3d, 0x37, 0xbc, 0xbe, 0x3d, 0xa3, 0x96, 0x76, 0xbc,
  0xa2, 0x5c, 0x0b, 0xbe, 0x9d, 0x44, 0x64, 0xbe, 0x7d, 0xc4, 0xfb, 0xbd,
  0xbb, 0x46, 0x49, 0x3e, 0x2d, 0xc5, 0xe9, 0xbd, 0xae, 0x9d, 0xa2, 0xbe,
  0x3d, 0xec, 0xb5, 0x3c, 0x43, 0x03, 0x64, 0xbd, 0x85, 0x23, 0xc6, 0xbd,
  0xa1, 0x49, 0x83, 0xbe, 0xd9, 0x3a, 0x7c, 0xbe, 0xd9, 0xdb, 0x92, 0xbe,
  0xc6, 0xdc, 0x80, 0xbd, 0xc3, 0x1d, 0x06, 0xbe, 0x8d, 0x0b, 0xd5, 0xbc,
  0x9e, 0xbe, 0x04, 0xbe, 0x21, 0xf2, 0x5a, 0xbd, 0x7a, 0x77, 0xa4, 0xbd,
  0xf0, 0xee, 0x12, 0xbe, 0x1c, 0x84, 0x84, 0xbe, 0xf0, 0x95, 0x34, 0x3c,
  0xe2, 0x0c, 0x48, 0xbd, 0xba, 0xfe, 0x90, 0x3e, 0x47, 0x31, 0xde, 0xbc,
  0x9e, 0x7a, 0x91, 0x3d, 0x07, 0x0c, 0xc4, 0x3d, 0x05, 0x07, 0x2a, 0x3e,
  0x82, 0xaa, 0x87, 0xbe, 0x8f, 0xec, 0xbe, 0xbd, 0x2f, 0xd3, 0x1e, 0xbe,
  0x96, 0xf7, 0x12, 0x3e, 0xe6, 0x6d, 0x20, 0xbe, 0xe5, 0x7c, 0x84, 0x3d,
  0x31, 0xc0, 0xe2, 0xbc, 0x1f, 0xce, 0x1a, 0xbd, 0xab, 0x1f, 0x05, 0x3d,
  0x07, 0x3c, 0xe4, 0x3d, 0xcb, 0x30, 0x20, 0x3e, 0x3b, 0x92, 0x95, 0x3d,
  0x41, 0x9a, 0xea, 0x3d, 0x3a, 0x59, 0x21, 0xbd, 0xc2, 0x9c, 0xb2, 0xbc,
  0x71, 0x49, 0xb8, 0x3e, 0xe5, 0x9d, 0xa7, 0x3d, 0x20, 0xbc, 0x49, 0xbf,
  0x36, 0xa2, 0x36, 0xbf, 0x04, 0x1a, 0x84, 0xbe, 0xd2, 0x9f, 0xa0, 0xbe,
  0xb7, 0x23, 0xe2, 0x3d, 0x37, 0x5c, 0xba, 0xbd, 0x29, 0xa7, 0xb5, 0x3d,
  0x51, 0x55, 0xaa, 0x3b, 0x5b, 0x8a, 0x75, 0x3e, 0x2e, 0x2a, 0x90, 0xbd,
  0xe0, 0x65, 0xd5, 0xbe, 0x22, 0xe9, 0x6b, 0xbe, 0x0f, 0x63, 0x95, 0x3e,
  0x84, 0x81, 0xd7, 0xbe, 0x5c, 0x0d, 0xb3, 0x3d, 0xc6, 0xf4, 0xdd, 0x3c,
  0xb8, 0x8e, 0x31, 0x3e, 0x68, 0x37, 0xba, 0x3e, 0x00, 0xa4, 0x25, 0xbe,
  0xc6, 0x52, 0x0b, 0x3e, 0xc3, 0x01, 0x4c, 0xbe, 0x71, 0x48, 0xbd, 0xbd,
  0x40, 0x66, 0x84, 0x3e, 0x82, 0xb6, 0xef, 0xbd, 0x17, 0xf3, 0xc4, 0xbd,
  0xd6, 0x2a, 0x0b, 0x3e, 0xbb, 0xf6, 0xd0, 0x3d, 0xa0, 0x9c, 0xf0, 0xbd,
  0x90, 0xaa, 0xb5, 0xbd, 0x43, 0x03, 0x3e, 0xbd, 0x84, 0x12, 0x20, 0xbe,
  0x64, 0xf0, 0x53, 0x3c, 0x1a, 0x8d, 0x93, 0x3d, 0x7e, 0x5c, 0x0e, 0x3d,
  0xd0, 0xb6, 0xbf, 0x3c, 0xa8, 0x9f, 0xae, 0x3d, 0xe8, 0xe7, 0x25, 0x3f,
  0xea, 0xaf, 0xc5, 0xbc, 0x70, 0xb4, 0x83, 0xbd, 0x32, 0x12, 0x1c, 0x3d,
  0x96, 0x8d, 0xa2, 0xbe, 0x1c, 0x41, 0x64, 0xbe, 0x01, 0x3e, 0x1c, 0xbd,
  0xac, 0xc5, 0x0e, 0x3d, 0xba, 0x7e, 0x96, 0xbd, 0xd1, 0xb9, 0x89, 0xbd,
  0xe7, 0x00, 0x99, 0x3c, 0xb9, 0xd1, 0x4d, 0xbe, 0x7e, 0xf7, 0x5f, 0xbe,
  0x26, 0x0e, 0x07, 0xbe, 0x46, 0xc0, 0x20, 0xbd, 0x5f, 0x42, 0xa1, 0xbe,
  0x3d, 0x6c, 0xc0, 0x3d, 0x89, 0x56, 0x94, 0xbd, 0xa5, 0xcc, 0x9e, 0x3d,
  0x7c, 0xd1, 0x6b, 0x3d, 0xe9, 0x2a, 0x8f, 0xba, 0x1c, 0x96, 0xa0, 0xbd,
  0x3f, 0x4d, 0x19, 0x3d, 0x41, 0x2a, 0xd5, 0xbe, 0xb9, 0xa5, 0xbc, 0x3c,
  0xd9, 0x9b, 0xc4, 0xbd, 0x5e, 0xcb, 0x57, 0x3e, 0x88, 0xd1, 0x21, 0x3c,
  0xd6, 0x45, 0x02, 0x3e, 0x73, 0x34, 0xef, 0xbb, 0xde, 0xa2, 0x07, 0xbe,
  0xf3, 0x86, 0x05, 0x3d, 0xa9, 0x58, 0x97, 0xbd, 0xe5, 0xe9, 0x5d, 0xbe,
  0x09, 0xc2, 0x1a, 0x3e, 0x75, 0x0a, 0x9d, 0x3c, 0x83, 0xdb, 0x54, 0x3e,
  0x14, 0x49, 0xa2, 0x3d, 0x2a, 0xfe, 0x8a, 0xbe, 0xe0, 0x4a, 0xa0, 0xbc,
  0xc1, 0x14, 0xba, 0x3c, 0xc7, 0xba, 0x98, 0xbe, 0x15, 0x2a, 0x24, 0x3f,
  0x9e, 0x25, 0xc7, 0xbc, 0xc5, 0xdc, 0x32, 0x3e, 0xd2, 0xb4, 0xca, 0x3c,
  0x26, 0x7a, 0x0c, 0xbe, 0xde, 0x12, 0xc5, 0x3d, 0xcc, 0x68, 0x94, 0x3d,
  0x81, 0x06, 0x7e, 0xbe, 0xbd, 0x91, 0x36, 0xbe, 0x2e, 0xcb, 0x2a, 0xbd,
  0x57, 0x8f, 0x48, 0x3e, 0xe1, 0xea, 0xb4, 0x3d, 0x85, 0xfa, 0x50, 0xbd,
  0xd9, 0x25, 0x97, 0x3d, 0x19, 0xb5, 0xef, 0x3d, 0x45, 0x70, 0x50, 0xbe,
  0xba, 0x3d, 0x39, 0x3e, 0x9f, 0x78, 0x7b, 0x3d, 0xb3, 0xf9, 0xb0, 0xbd,
  0x44, 0xe7, 0x81, 0xbe, 0x74, 0xdb, 0x18, 0xbe, 0xf5, 0x5d, 0xc6, 0xbe,
  0xa0, 0x05, 0x8e, 0xbe, 0x96, 0x23, 0x80, 0x3d, 0xae, 0x22, 0xa0, 0xbe,
  0xfd, 0xde, 0xa8, 0x3d, 0x00, 0x13, 0x15, 0xbf, 0x43, 0xbb, 0x76, 0xbe,
  0x34, 0x62, 0x5c, 0x3c, 0xcc, 0xc2, 0x99, 0x3e, 0x9d, 0xee, 0x96, 0xbd,
  0x6c, 0x37, 0x19, 0xbe, 0xe9, 0x48, 0x02, 0x3e, 0xf5, 0xce, 0x46, 0xbe,
  0x27, 0x9d, 0x14, 0xbe, 0x45, 0x59, 0x50, 0xbd, 0x19, 0xe8, 0x2b, 0xbe,
  0x2c, 0x53, 0x47, 0xbe, 0x3a, 0x4c, 0xab, 0xbc, 0x57, 0x0a, 0xaa, 0xbd,
  0xee, 0x9b, 0x90, 0xbe, 0x68, 0xad, 0x46, 0x3e, 0x6a, 0xb6, 0xec, 0xbd,
  0xf1, 0x6a, 0x0f, 0xbe, 0x5d, 0xa2, 0x17, 0xbe, 0xb6, 0x4a, 0x27, 0xbe,
  0xd8, 0x0f, 0x36, 0x3c, 0xa6, 0x06, 0xcf, 0x3d, 0x74, 0x3a, 0x42, 0xbe,
  0xb7, 0xba, 0xf4, 0x3e, 0x46, 0xd4, 0xa2, 0xbd, 0xc6, 0x9e, 0xad, 0xbd,
  0x76, 0x04, 0xc9, 0x3d, 0xde, 0x64, 0x7f, 0xbc, 0x0a, 0x27, 0x29, 0x3e,
  0x1b, 0x32, 0x80, 0xbd, 0x4c, 0x6b, 0x89, 0x3e, 0xef, 0x8d, 0x05, 0xbe,
  0x42, 0x41, 0x59, 0xbd, 0xe7, 0x1f, 0x47, 0xbe, 0x0c, 0x7a, 0x67, 0xbd,
  0x12, 0x8b, 0x58, 0xbe, 0x43, 0x5e, 0x54, 0xbb, 0x94, 0xe6, 0x74, 0xbd,
  0xea, 0x04, 0x9d, 0x3d, 0x83, 0x76, 0xe5, 0xbd, 0x7b, 0xdb, 0x8b, 0x3c,
  0xf2, 0xfc, 0x19, 0xbc, 0xe3, 0xee, 0xed, 0xbc, 0x02, 0x63, 0x1a, 0xbd,
  0x00, 0x1c, 0xa8, 0xbd, 0x91, 0x18, 0xe3, 0xbd, 0x06, 0x1c, 0x35, 0x3e,
  0xdd, 0x10, 0xb7, 0xbd, 0xea, 0xb3, 0x00, 0xbd, 0xd3, 0xc7, 0xed, 0xbd,
  0xd8, 0xf7, 0x1b, 0x3d, 0x17, 0x2c, 0x90, 0x3d, 0x6c, 0x0a, 0x8a, 0xbd,
  0x3b, 0x74, 0x09, 0xbe, 0xac, 0xf1, 0xa6, 0x3d, 0x29, 0xf3, 0xec, 0xbd,
  0x47, 0x62, 0x23, 0x3e, 0x3c, 0x54, 0x33, 0xbd, 0x3c, 0x65, 0x69, 0xbc,
  0x22, 0x7a, 0x05, 0xbe, 0x2d, 0x1d, 0x38, 0xbf, 0xe5, 0x96, 0x45, 0xbc,
  0x41, 0xd6, 0x1e, 0xbe, 0x6a, 0x97, 0xed, 0xbd, 0x77, 0xdb, 0x58, 0x3e,
  0x94, 0xfa, 0x13, 0x3d, 0x0c, 0xb4, 0x79, 0xbd, 0xeb, 0xd7, 0x52, 0xbe,
  0x75, 0xc3, 0xe8, 0xbe, 0x0d, 0x0f, 0xa8, 0xbc, 0x29, 0x0f, 0xea, 0xbd,
  0xca, 0x1a, 0x88, 0xbe, 0x24, 0xf2, 0x40, 0xbe, 0xb8, 0xd9, 0x87, 0x3d,
  0x14, 0x38, 0x00, 0xbe, 0xdc, 0x08, 0xd1, 0xbb, 0x03, 0x70, 0x1f, 0xbe,
  0x95, 0xa0, 0xaa, 0xbd, 0xf5, 0x30, 0x86, 0xbe, 0x3a, 0xa2, 0x85, 0xbe,
  0x68, 0x6b, 0x2c, 0xbe, 0x9e, 0x8a, 0xe8, 0x3e, 0x53, 0x18, 0xb1, 0xbd,
  0x2d, 0x62, 0xb4, 0xbd, 0x7f, 0x04, 0x28, 0xbc, 0x8f, 0x8f, 0x0e, 0x3c,
  0xd0, 0x08, 0x87, 0xbe, 0x5d, 0x0d, 0x16, 0xbe, 0xfa, 0x7f, 0xcd, 0xbc,
  0xa6, 0x9a, 0x13, 0xbe, 0x1b, 0xa1, 0xf8, 0xbc, 0xb8, 0x00, 0x24, 0xbe,
  0x4d, 0xbd, 0x90, 0xbe, 0xe0, 0xa4, 0xfd, 0xbc, 0xde, 0x2f, 0xe2, 0xbd,
  0x68, 0x88, 0x56, 0xbd, 0xfc, 0xa0, 0xc2, 0x3d, 0x7d, 0x2f, 0x49, 0xbd,
  0xad, 0xf6, 0x72, 0xbd, 0x2b, 0xdf, 0x86, 0xbd, 0x07, 0x69, 0xa0, 0x3d,
  0xe4, 0x50, 0x29, 0xbd, 0x2d, 0x53, 0x79, 0xbe, 0x62, 0x85, 0x10, 0x3f,
  0xf5, 0x25, 0xae, 0xbd, 0x08, 0x08, 0x72, 0x3d, 0x64, 0x70, 0x0d, 0xbd,
  0x65, 0x1c, 0x16, 0x3f, 0x5b, 0x99, 0x8e, 0xbc, 0x51, 0xc8, 0x8f, 0xbb,
  0x34, 0xd9, 0x43, 0xbe, 0xa6, 0xb5, 0x08, 0x3c, 0xea, 0x52, 0xbc, 0xbd,
  0x7e, 0x43, 0x6f, 0x3d, 0xa9, 0x87, 0x20, 0xbd, 0x2c, 0x02, 0xca, 0x3d,
  0x4a, 0xa1, 0x7f, 0x3c, 0xef, 0x4e, 0x94, 0xba, 0x27, 0xb8, 0x11, 0xbe,
  0x17, 0x88, 0xff, 0x3d, 0x61, 0x45, 0x5a, 0x3e, 0x33, 0x92, 0x87, 0x3d,
  0xb1, 0x7e, 0xdc, 0xbe, 0xc0, 0xb1, 0xfe, 0xbd, 0x61, 0xe4, 0xb7, 0x3e,
  0x3a, 0xc9, 0xd7, 0xbe, 0x5c, 0xbc, 0x88, 0x3e, 0xed, 0x76, 0xf9, 0x3d,
  0x39, 0xbd, 0xa8, 0x3d, 0x3a, 0x27, 0x0b, 0x3e, 0x42, 0x99, 0xa7, 0xbe,
  0xc1, 0x0e, 0x32, 0x3e, 0x45, 0xbe, 0x27, 0xbf, 0x31, 0xa9, 0x48, 0xbe,
  0xef, 0xb8, 0xa0, 0xbe, 0x59, 0x15, 0x07, 0x3e, 0x34, 0x2f, 0x9f, 0x3d,
  0x77, 0x45, 0x59, 0x3e, 0x83, 0xec, 0xc8, 0xbc, 0x0d, 0x53, 0x47, 0xbd,
  0x32, 0x9a, 0x42, 0xbd, 0xc7, 0x1c, 0x9e, 0xbd, 0xb6, 0x84, 0x4d, 0xbe,
  0x8c, 0x9c, 0xad, 0xbe, 0x34, 0x1f, 0x18, 0xbe, 0xbe, 0xe5, 0xc4, 0x3d,
  0xa0, 0x6c, 0x0b, 0x3d, 0x9c, 0x57, 0x94, 0xbd, 0x16, 0x33, 0x25, 0x3d,
  0x2e, 0xb8, 0xce, 0x3d, 0x24, 0x2c, 0x2c, 0x3b, 0xba, 0xdc, 0x50, 0xbe,
  0x45, 0x28, 0x21, 0xbf, 0x5e, 0x9a, 0x8d, 0xbe, 0x14, 0xe9, 0x01, 0xbf,
  0xed, 0x59, 0x17, 0xbe, 0xf3, 0xa9, 0x98, 0x3e, 0x34, 0x4e, 0x06, 0xbe,
  0x1c, 0xda, 0x12, 0x3e, 0x12, 0x24, 0x06, 0xbe, 0xdf, 0xab, 0x83, 0x3e,
  0xa8, 0x3a, 0x94, 0xbe, 0x11, 0x3f, 0x1f, 0xbf, 0xbd, 0xe0, 0x0e, 0xbf,
  0xe0, 0x58, 0xfe, 0x3e, 0xd5, 0x6c, 0x2e, 0xbe, 0x4e, 0xc3, 0xfe, 0x3d,
  0x9d, 0xd0, 0x06, 0x3e, 0x93, 0xb6, 0x05, 0x3d, 0x41, 0xa0, 0x87, 0x3e,
  0xcb, 0xf7, 0x1f, 0xbe, 0xd6, 0xaa, 0x9d, 0xbe, 0xb0, 0x0e, 0xb4, 0xbe,
  0x34, 0xc7, 0xbc, 0xbd, 0xc4, 0xaf, 0x5b, 0xbe, 0xe1, 0x94, 0x01, 0x3e,
  0xb0, 0x31, 0x51, 0x3d, 0xde, 0x75, 0x77, 0xbd, 0xcd, 0xfe, 0xca, 0x3d,
  0x96, 0x58, 0xe0, 0xbd, 0x85, 0x28, 0x7a, 0xbe, 0x0a, 0x9b, 0xca, 0x3e,
  0xa9, 0x24, 0xb9, 0xbe, 0xe2, 0xdd, 0xff, 0xff, 0x10, 0x00, 0x00, 0x00,
  0x0a, 0x00, 0x00, 0x00, 0x1c, 0x00, 0x00, 0x00, 0x38, 0x00, 0x00, 0x00,
  0x04, 0x00, 0x00, 0x00, 0x10, 0x00, 0x00, 0x00, 0x04, 0x00, 0x00, 0x00,
  0x01, 0x00, 0x00, 0x00, 0x08, 0x00, 0x00, 0x00, 0x1a, 0x00, 0x00, 0x00,
  0x73, 0x65, 0x71, 0x75, 0x65, 0x6e, 0x74, 0x69, 0x61, 0x6c, 0x2f, 0x63,
  0x6f, 0x6e, 0x76, 0x32, 0x64, 0x5f, 0x31, 0x2f, 0x43, 0x6f, 0x6e, 0x76,
  0x32, 0x44, 0x00, 0x00, 0x58, 0xdd, 0xff, 0xff, 0x62, 0xde, 0xff, 0xff,
  0x04, 0x00, 0x00, 0x00, 0x80, 0x01, 0x00, 0x00, 0xf1, 0x6d, 0x10, 0x3f,
  0x2b, 0x03, 0x5b, 0x3c, 0x05, 0x69, 0xe4, 0xbd, 0x18, 0xa6, 0xea, 0x3d,
  0xb8, 0x3f, 0xba, 0x3d, 0x90, 0xc4, 0xa6, 0xbd, 0x76, 0x2a, 0xf8, 0xbe,
  0x62, 0x0d, 0xf2, 0xbd, 0x23, 0x2a, 0xdc, 0x3d, 0x43, 0xe0, 0x47, 0xbe,
  0xb7, 0x0d, 0x31, 0xbc, 0xbe, 0xf1, 0x99, 0x3d, 0x35, 0x18, 0x4c, 0x3e,
  0xbf, 0x5d, 0x3c, 0xbc, 0x90, 0x62, 0x9d, 0x3d, 0x89, 0x6b, 0xb2, 0x3e,
  0xfd, 0x75, 0xd6, 0x3d, 0x2a, 0xc5, 0x53, 0x3d, 0xd3, 0x66, 0x43, 0xbe,
  0x16, 0xef, 0x35, 0x3e, 0x9c, 0x4d, 0xbe, 0x3d, 0xa8, 0x6e, 0xa0, 0xbe,
  0x7e, 0xa2, 0xaa, 0xbe, 0xed, 0xf3, 0x9b, 0xbe, 0x6c, 0x6f, 0x84, 0x3d,
  0xca, 0x59, 0x41, 0x3e, 0xf3, 0xe1, 0x68, 0x3e, 0xe6, 0x6c, 0x8a, 0xbd,
  0x27, 0xe7, 0x17, 0xbd, 0x4c, 0x0d, 0x94, 0x3c, 0x0c, 0xd3, 0x09, 0xbd,
  0xc2, 0xd8, 0x1e, 0xbe, 0x9c, 0x05, 0x30, 0xbe, 0xe1, 0xbe, 0xa3, 0xbc,
  0xf4, 0x06, 0xac, 0xbd, 0x33, 0xa1, 0x49, 0xbe, 0x32, 0x8b, 0x8b, 0xbd,
  0x3a, 0x91, 0x80, 0xbe, 0x80, 0x37, 0x3b, 0xbe, 0x6d, 0x64, 0x19, 0xbc,
  0x73, 0x53, 0x81, 0x3d, 0x70, 0xf1, 0xba, 0x3d, 0xc3, 0xe1, 0x0f, 0xbe,
  0x0b, 0xdd, 0x03, 0x3e, 0xfd, 0x6c, 0xc3, 0xbd, 0x5b, 0xa0, 0x4d, 0xbd,
  0x4c, 0xb1, 0x21, 0x3d, 0xe2, 0xa9, 0x33, 0xbe, 0xc7, 0xfd, 0x8f, 0x3e,
  0x75, 0xfe, 0xb0, 0x3e, 0x49, 0xea, 0xb4, 0xbe, 0xaa, 0xcf, 0x36, 0xbd,
  0x8f, 0x0e, 0x01, 0xba, 0x25, 0x18, 0xd4, 0x3d, 0xe2, 0x0e, 0x7a, 0xbe,
  0xfd, 0xa8, 0x9c, 0xbe, 0x3e, 0x48, 0x91, 0x3d, 0xff, 0xda, 0x5e, 0xbc,
  0xd9, 0x23, 0xe3, 0xbd, 0x94, 0xaa, 0xa5, 0x3d, 0x16, 0x85, 0x92, 0xbc,
  0x70, 0xa6, 0xf3, 0xbd, 0x54, 0x3e, 0xa0, 0xbd, 0xeb, 0x0b, 0x09, 0xbd,
  0x0a, 0xd7, 0xb8, 0xbe, 0xd9, 0x9b, 0xaf, 0xbe, 0xdc, 0x35, 0xbc, 0x3c,
  0xd8, 0x94, 0xdf, 0xbc, 0x53, 0x73, 0xec, 0x3d, 0xb9, 0xf0, 0x61, 0xbd,
  0x20, 0x0a, 0xd3, 0x3e, 0x93, 0x63, 0x78, 0x3e, 0xf7, 0xb3, 0x23, 0xbe,
  0x11, 0xe2, 0x4a, 0x3c, 0xeb, 0xba, 0xab, 0xbc, 0x9d, 0xa0, 0xdd, 0xbd,
  0x48, 0x61, 0xb4, 0x3b, 0x11, 0xc3, 0xf0, 0xbc, 0x46, 0xdc, 0x92, 0xbd,
  0x8f, 0xe0, 0xde, 0x3b, 0xc7, 0xcb, 0x94, 0xbd, 0x17, 0x3f, 0xb7, 0xbd,
  0x24, 0x03, 0x67, 0x3d, 0xfa, 0x8d, 0xbb, 0xbd, 0xc5, 0xf1, 0xf3, 0xbe,
  0xf0, 0x1a, 0x85, 0xbe, 0x4b, 0x28, 0xa0, 0xbd, 0x9a, 0x55, 0xb7, 0x3e,
  0xba, 0xd2, 0x62, 0xbe, 0x33, 0xe9, 0xa4, 0x3d, 0x07, 0xea, 0x4f, 0x3e,
  0xce, 0xf2, 0xe5, 0x3e, 0x32, 0x71, 0x1c, 0xbe, 0xb9, 0x56, 0x50, 0x3d,
  0x3b, 0x9c, 0x4c, 0xbd, 0xc8, 0xe6, 0x3c, 0x3d, 0xba, 0xdf, 0xff, 0xff,
  0x10, 0x00, 0x00, 0x00, 0x09, 0x00, 0x00, 0x00, 0x1c, 0x00, 0x00, 0x00,
  0x38, 0x00, 0x00, 0x00, 0x04, 0x00, 0x00, 0x00, 0x08, 0x00, 0x00, 0x00,
  0x04, 0x00, 0x00, 0x00, 0x03, 0x00, 0x00, 0x00, 0x01, 0x00, 0x00, 0x00,
  0x18, 0x00, 0x00, 0x00, 0x73, 0x65, 0x71, 0x75, 0x65, 0x6e, 0x74, 0x69,
  0x61, 0x6c, 0x2f, 0x63, 0x6f, 0x6e, 0x76, 0x32, 0x64, 0x2f, 0x43, 0x6f,
  0x6e, 0x76, 0x32, 0x44, 0x00, 0x00, 0x00, 0x00, 0x30, 0xdf, 0xff, 0xff,
  0x3a, 0xe0, 0xff, 0xff, 0x04, 0x00, 0x00, 0x00, 0x00, 0x01, 0x00, 0x00,
  0x1d, 0x21, 0xbf, 0x3d, 0x6a, 0x29, 0x78, 0xbe, 0xc0, 0xd6, 0x87, 0x3d,
  0xf8, 0x69, 0x8d, 0x3e, 0x8e, 0x1b, 0x2d, 0xbe, 0x48, 0x95, 0x2c, 0x3e,
  0xaa, 0x6d, 0xd3, 0x37, 0x3e, 0x98, 0x82, 0x3d, 0x4e, 0xac, 0x7c, 0xbe,
  0x14, 0x80, 0xe5, 0xbd, 0x43, 0x0f, 0xc2, 0x3e, 0x48, 0xa3, 0x02, 0x3e,
  0x38, 0x3b, 0x7f, 0x3e, 0x39, 0x7f, 0xb6, 0xbe, 0x8a, 0xc5, 0x35, 0x3c,
  0xe6, 0x6d, 0x6f, 0x3d, 0x05, 0x51, 0x23, 0xbd, 0xf4, 0x01, 0xd5, 0xbe,
  0xc0, 0x1a, 0x3d, 0x3e, 0xb8, 0x46, 0xaf, 0x3e, 0xe2, 0x99, 0xa2, 0xbd,
  0xb3, 0xcf, 0x47, 0x3e, 0xc8, 0xad, 0xb4, 0xbc, 0x0f, 0xc7, 0x86, 0x3c,
  0x0a, 0x2b, 0x40, 0xbe, 0x20, 0x3c, 0xe0, 0xbc, 0xcb, 0xf8, 0xcc, 0x3e,
  0xbe, 0x38, 0x59, 0x3e, 0xaf, 0xdf, 0x40, 0xbe, 0x3e, 0xb3, 0x4b, 0xbe,
  0xa2, 0x79, 0x9b, 0x3d, 0x78, 0x81, 0x3d, 0x3d, 0x2f, 0xc4, 0x1a, 0x3e,
  0xb7, 0x65, 0xc8, 0xbe, 0x40, 0x3a, 0xac, 0x3c, 0xf5, 0x1c, 0xb5, 0x3e,
  0x51, 0x70, 0x4d, 0xbe, 0x08, 0x14, 0x5f, 0xbb, 0x5f, 0x51, 0xb1, 0xbc,
  0x0b, 0x6c, 0xfc, 0x3c, 0xb8, 0x3c, 0x81, 0xbe, 0x47, 0xc5, 0xa1, 0xbd,
  0x8a, 0xfd, 0x4e, 0x3e, 0xca, 0xf8, 0x9b, 0x3d, 0x96, 0x78, 0xb3, 0x3e,
  0xf6, 0x20, 0x22, 0xbe, 0xd8, 0x7e, 0x4f, 0xbd, 0xcd, 0x53, 0x03, 0x3e,
  0x3f, 0x0e, 0x8d, 0x3d, 0x0f, 0x85, 0xb5, 0x3e, 0x9e, 0x5b, 0x4b, 0x3e,
  0x12, 0x14, 0x9c, 0x3e, 0xe2, 0xd6, 0xf6, 0xbc, 0x19, 0x1d, 0x8e, 0x3d,
  0x9d, 0x2e, 0x65, 0xbd, 0x45, 0xa3, 0xe8, 0xbb, 0x28, 0x45, 0x88, 0xbe,
  0xcf, 0xe4, 0xe6, 0x3b, 0x78, 0xe5, 0x93, 0x3e, 0x71, 0xac, 0x11, 0x3e,
  0x86, 0x7b, 0x8d, 0x3e, 0x0e, 0x6c, 0x92, 0x3e, 0x06, 0x03, 0x0b, 0x3c,
  0x76, 0x21, 0x9b, 0x3d, 0x12, 0xe1, 0xff, 0xff, 0x10, 0x00, 0x00, 0x00,
  0x08, 0x00, 0x00, 0x00, 0x14, 0x00, 0x00, 0x00, 0x30, 0x00, 0x00, 0x00,
  0x02, 0x00, 0x00, 0x00, 0x04, 0x00, 0x00, 0x00, 0x10, 0x00, 0x00, 0x00,
  0x19, 0x00, 0x00, 0x00, 0x73, 0x65, 0x71, 0x75, 0x65, 0x6e, 0x74, 0x69,
  0x61, 0x6c, 0x2f, 0x64, 0x65, 0x6e, 0x73, 0x65, 0x5f, 0x31, 0x2f, 0x4d,
  0x61, 0x74, 0x4d, 0x75, 0x6c, 0x00, 0x00, 0x00, 0x80, 0xe0, 0xff, 0xff,
  0x8a, 0xe1, 0xff, 0xff, 0x04, 0x00, 0x00, 0x00, 0x00, 0x1c, 0x00, 0x00,
  0xbf, 0xa7, 0x56, 0xbe, 0xa2, 0x94, 0xb4, 0xbd, 0x35, 0x5f, 0x9e, 0xbc,
  0x3e, 0x5d, 0xe5, 0xbd, 0x33, 0x8c, 0x0b, 0xbe, 0x35, 0x2d, 0x9a, 0x3d,
  0x28, 0x16, 0xbf, 0x3c, 0x4a, 0xbb, 0x8a, 0xbd, 0x5e, 0x34, 0xe3, 0xbd,
  0x7b, 0x1e, 0x88, 0xbe, 0x71, 0x90, 0xbb, 0x3d, 0x2a, 0xd4, 0x5e, 0xbe,
  0x75, 0xf9, 0x78, 0xbd, 0x0b, 0x56, 0x90, 0xbc, 0x00, 0xc6, 0x50, 0xbe,
  0x22, 0x1a, 0x35, 0x3e, 0x07, 0x58, 0x74, 0xbe, 0xea, 0x2c, 0x77, 0x3c,
  0x36, 0x35, 0x05, 0x3e, 0xcf, 0x33, 0xed, 0x3d, 0x67, 0x6d, 0x86, 0xbe,
  0x16, 0xaf, 0x57, 0xbd, 0x2d, 0x64, 0x88, 0xbe, 0x34, 0x74, 0xcd, 0xbc,
  0x4f, 0xee, 0x2e, 0x3d, 0x4d, 0xfc, 0x92, 0xbe, 0x37, 0x4c, 0x51, 0x3e,
  0x30, 0x95, 0x66, 0xbd, 0x1d, 0x65, 0x8b, 0x3d, 0x41, 0xec, 0x02, 0x3e,
  0x6e, 0x00, 0xb8, 0x3d, 0x8c, 0x0b, 0xb7, 0xbc, 0x21, 0x15, 0x57, 0xbe,
  0xde, 0xe5, 0xd9, 0x3e, 0x61, 0x09, 0xf9, 0x3d, 0xfe, 0x18, 0x66, 0x3c,
  0x4f, 0x91, 0xa6, 0xbe, 0x50, 0xcf, 0x88, 0x3e, 0x7f, 0x23, 0xdb, 0xbe,
  0xa2, 0x52, 0x7d, 0x3e, 0x63, 0xf8, 0xb2, 0x3e, 0x09, 0x44, 0xef, 0xbc,
  0x0b, 0xf6, 0xd7, 0x3d, 0x58, 0x11, 0x1b, 0xbe, 0x40, 0x6b, 0x12, 0x3e,
  0x8d, 0x39, 0xd1, 0x3d, 0x0a, 0x6f, 0x4a, 0x3e, 0x42, 0x5f, 0x02, 0x3e,
  0x0b, 0x14, 0xcb, 0x3c, 0x0c, 0xa2, 0x02, 0x3f, 0x4b, 0x6a, 0xb2, 0x3d,
  0x0a, 0x61, 0xca, 0xbd, 0xfe, 0x26, 0xbf, 0xbc, 0x0e, 0xeb, 0x3a, 0x3e,
  0xba, 0xc9, 0xed, 0xbe, 0x1d, 0x3b, 0xa7, 0x3e, 0x7e, 0x45, 0x23, 0x3e,
  0x35, 0x89, 0x05, 0xbe, 0xd6, 0xdd, 0xfa, 0x3d, 0x4a, 0x8d, 0x86, 0xbd,
  0xa6, 0xa7, 0x98, 0xbd, 0x92, 0xf7, 0x34, 0x3c, 0xb1, 0x23, 0x84, 0x3e,
  0x4b, 0x4c, 0xd8, 0x3e, 0xc7, 0xd6, 0x0f, 0x3c, 0x96, 0x2a, 0x47, 0x3d,
  0x10, 0xfd, 0xda, 0x3d, 0x67, 0x65, 0xa7, 0x3d, 0xb4, 0xa0, 0x5a, 0x3d,
  0xc1, 0x7b, 0xc7, 0x3d, 0xce, 0x5a, 0x93, 0xbe, 0x00, 0x3f, 0xb9, 0x3d,
  0x80, 0x73, 0xf1, 0x3c, 0x15, 0x07, 0x1a, 0xbd, 0x08, 0x17, 0xf7, 0x3b,
  0xc8, 0x9c, 0xe3, 0x3d, 0x68, 0x4f, 0x06, 0x3e, 0x5b, 0x16, 0x90, 0xbc,
  0x39, 0x49, 0x49, 0xbd, 0x9f, 0xa3, 0x12, 0x3e, 0x50, 0xfd, 0x3a, 0xbe,
  0x4c, 0x86, 0x1c, 0x3e, 0x18, 0x1d, 0x03, 0x3d, 0xd6, 0xbc, 0xa9, 0xbc,
  0x02, 0x89, 0x81, 0x3d, 0x90, 0xcc, 0x1f, 0x3e, 0x83, 0x94, 0xab, 0xbe,
  0x51, 0x10, 0xab, 0xbd, 0xc9, 0xc0, 0xfa, 0x3d, 0x5c, 0xa6, 0x0f, 0xbe,
  0x61, 0x91, 0x1f, 0x3c, 0x30, 0x29, 0x00, 0xbd, 0x8b, 0x5a, 0xc5, 0x3c,
  0xf0, 0x3e, 0xaa, 0xbc, 0x0a, 0x46, 0x4b, 0x3d, 0x53, 0xa2, 0xb2, 0x3d,
  0x83, 0x56, 0xba, 0xbd, 0xb8, 0xb8, 0x06, 0x3e, 0xb0, 0x5b, 0x46, 0x3c,
  0x58, 0x92, 0x64, 0xbe, 0x3a, 0x23, 0x74, 0x3e, 0x28, 0x8f, 0x72, 0xbd,
  0xa0, 0xcd, 0x6c, 0xbe, 0x9b, 0x2a, 0x63, 0xbd, 0xa6, 0x77, 0x93, 0xbc,
  0xe1, 0x33, 0xb1, 0x3c, 0x8c, 0x10, 0x87, 0x3d, 0x44, 0x37, 0xbc, 0xbd,
  0xe1, 0x7f, 0x87, 0xbc, 0xfc, 0xdf, 0xcc, 0x3c, 0xf1, 0xfc, 0x9e, 0x3d,
  0xe0, 0x38, 0xbe, 0x3c, 0x31, 0xec, 0x22, 0xbe, 0x38, 0x97, 0x1c, 0x3d,
  0x61, 0xcb, 0x6c, 0xbe, 0xf9, 0x1c, 0x1b, 0xbe, 0x13, 0xe7, 0x19, 0xbe,
  0x30, 0x76, 0xe0, 0x3d, 0x5e, 0x24, 0xf0, 0xbd, 0x20, 0xc8, 0x4f, 0xbd,
  0x65, 0x85, 0x03, 0xbe, 0xe7, 0xcb, 0x0c, 0x3e, 0x4a, 0x5b, 0x21, 0xbe,
  0x5b, 0x84, 0x7d, 0xbe, 0xb5, 0x45, 0x2b, 0x3e, 0x00, 0xb7, 0xe9, 0xbd,
  0x73, 0x0e, 0x23, 0xbe, 0x4a, 0x2e, 0x86, 0x3b, 0x91, 0x7e, 0x5e, 0xbd,
  0x16, 0x37, 0x1e, 0xbe, 0x05, 0xfc, 0x5e, 0xbe, 0x74, 0xd5, 0x23, 0xbe,
  0xbe, 0x27, 0x19, 0xbe, 0x79, 0x80, 0x2e, 0x3e, 0x97, 0x1a, 0xfd, 0xbc,
  0x3d, 0x93, 0xc2, 0x3c, 0x51, 0x7c, 0xb3, 0x3d, 0x16, 0xa7, 0x82, 0xbe,
  0x61, 0xa6, 0x3a, 0xbe, 0x45, 0x47, 0x45, 0xbe, 0x11, 0xb4, 0xf9, 0xbd,
  0xfb, 0x51, 0x1f, 0x3c, 0x7d, 0xa8, 0x1c, 0xbe, 0x06, 0x3a, 0x86, 0x3b,
  0x48, 0x49, 0x01, 0x3e, 0x9d, 0x7e, 0x28, 0xbe, 0xa8, 0xdd, 0x17, 0x3d,
  0xc3, 0xb4, 0x66, 0xbe, 0x4d, 0x95, 0x5c, 0xbe, 0xb4, 0x80, 0xd8, 0xbd,
  0x2d, 0xbd, 0x30, 0xbe, 0x75, 0x49, 0xed, 0xbd, 0x3b, 0x0a, 0xb2, 0x3c,
  0xab, 0x62, 0xc3, 0xbc, 0x6b, 0x5f, 0x34, 0x3e, 0x3d, 0xd2, 0x8e, 0xbe,
  0x03, 0xc5, 0xd0, 0x3d, 0x1b, 0xb8, 0xa4, 0x3c, 0xfa, 0xd2, 0x00, 0xbe,
  0xd3, 0xd7, 0x11, 0xbd, 0xc8, 0xcd, 0x39, 0xbd, 0x18, 0x14, 0x11, 0x3e,
  0x2e, 0x5d, 0xbe, 0x3d, 0x79, 0x64, 0xa0, 0xbd, 0xb0, 0xa5, 0x36, 0x3d,
  0xcb, 0xf4, 0x41, 0xbe, 0xf5, 0x6d, 0x00, 0xbe, 0x41, 0xfb, 0x26, 0x3b,
  0x38, 0x85, 0xe5, 0xbd, 0xea, 0x9e, 0xd7, 0xbd, 0x43, 0xbe, 0x24, 0xbe,
  0x0d, 0xd7, 0x99, 0x3d, 0x66, 0x0c, 0x22, 0x3e, 0xbf, 0x27, 0xe4, 0xbd,
  0x47, 0x33, 0x54, 0xbd, 0xfa, 0x94, 0x11, 0x3d, 0x80, 0x40, 0x10, 0x3d,
  0xae, 0x47, 0xef, 0x3d, 0x64, 0xe8, 0x68, 0xbe, 0xf3, 0x4f, 0x56, 0xbe,
  0x47, 0x63, 0x3d, 0xbe, 0x3e, 0xe5, 0x1d, 0x3e, 0xe2, 0xd5, 0x9d, 0xbd,
  0x04, 0x0a, 0xc2, 0xbd, 0x56, 0x7a, 0x5c, 0xbd, 0x22, 0xbd, 0xd0, 0xb8,
  0x47, 0xe7, 0xbe, 0x3d, 0x73, 0xad, 0x56, 0x3d, 0xd6, 0x15, 0x46, 0xbd,
  0x55, 0x2f, 0x18, 0xbd, 0x5f, 0x3a, 0x6b, 0x3d, 0x0f, 0xd5, 0x17, 0xbe,
  0x27, 0xf7, 0xb3, 0x3d, 0x07, 0x73, 0x44, 0xbe, 0x22, 0x72, 0x92, 0xbd,
  0x2c, 0x9e, 0x8f, 0xbe, 0xbb, 0x77, 0x22, 0x3e, 0xb7, 0xdc, 0x34, 0x3d,
  0x64, 0x1e, 0x57, 0xbd, 0x0b, 0x3a, 0xd9, 0x3d, 0x52, 0xeb, 0xdc, 0x3d,
  0xe2, 0x6e, 0xa2, 0xbd, 0x16, 0x14, 0xd7, 0x3d, 0x6f, 0x42, 0x1f, 0xbe,
  0xa9, 0xa2, 0x1e, 0x3e, 0x7a, 0x30, 0x73, 0xbe, 0xf7, 0x85, 0x59, 0x3d,
  0xa8, 0xba, 0xbb, 0x3d, 0xe2, 0x6e, 0x3f, 0xbd, 0x65, 0xb0, 0x9f, 0xbd,
  0x24, 0xce, 0x04, 0xbd, 0xff, 0x10, 0x57, 0xbe, 0x2b, 0x54, 0xda, 0xbc,
  0x5d, 0x81, 0xba, 0xbc, 0xed, 0x5f, 0x00, 0xbe, 0x79, 0x58, 0xfa, 0xbd,
  0xd4, 0x06, 0x16, 0xbd, 0x6a, 0x72, 0x81, 0xbe, 0xb8, 0x1d, 0x8a, 0x3c,
  0x3e, 0x57, 0x1e, 0xbe, 0x10, 0xb1, 0x91, 0x3c, 0x63, 0xde, 0x8b, 0xbc,
  0xea, 0x84, 0xb0, 0xbd, 0xf2, 0x24, 0x95, 0xbd, 0xaa, 0x84, 0x70, 0x3c,
  0xe6, 0x66, 0xc7, 0x3d, 0xa4, 0x13, 0xfa, 0x3d, 0x00, 0x79, 0x3d, 0xbe,
  0x57, 0x25, 0x5a, 0xbe, 0x74, 0x36, 0xa1, 0x3e, 0x9e, 0xce, 0x9c, 0x3d,
  0x72, 0x72, 0xf2, 0x3d, 0x0a, 0x2f, 0xf0, 0xbd, 0x69, 0x45, 0xa2, 0x3d,
  0xde, 0xed, 0xd5, 0x3d, 0x41, 0xb1, 0xb0, 0x3d, 0x58, 0x0f, 0xe5, 0x3e,
  0x13, 0x85, 0x42, 0xbe, 0xd0, 0x9f, 0x6a, 0x3d, 0xa0, 0x9a, 0x15, 0xbe,
  0x92, 0x0d, 0xd2, 0xbd, 0xe2, 0xe3, 0x66, 0xbe, 0x92, 0x4f, 0xc8, 0x39,
  0xce, 0x23, 0xd3, 0xbe, 0x4a, 0x7c, 0x19, 0x3d, 0xe4, 0x7b, 0xaf, 0x3e,
  0x5e, 0x26, 0x56, 0x3d, 0xba, 0x7a, 0x95, 0x3b, 0xae, 0xa0, 0x27, 0xbf,
  0x78, 0xd8, 0x9a, 0x3e, 0x9e, 0x36, 0x81, 0x3e, 0x8f, 0x51, 0x40, 0xbe,
  0xbb, 0xd2, 0x92, 0x3d, 0xba, 0xae, 0x33, 0xbe, 0x3b, 0xce, 0xfd, 0x3c,
  0xb2, 0x6a, 0xa5, 0xbe, 0x6f, 0x54, 0x5c, 0x3d, 0xdd, 0x1d, 0x7e, 0xbe,
  0x0b, 0xe0, 0x41, 0x3d, 0xb9, 0x43, 0x27, 0xbf, 0x69, 0xe4, 0xb5, 0x3e,
  0x24, 0x93, 0x90, 0x3e, 0x24, 0x5b, 0xd0, 0x3a, 0x3f, 0x96, 0x41, 0x3e,
  0x97, 0x48, 0xb7, 0xbe, 0x9e, 0x22, 0x86, 0x3e, 0x7c, 0xc1, 0x0c, 0x3f,
  0x28, 0x6e, 0xde, 0x3d, 0x79, 0x5d, 0x96, 0x3e, 0x79, 0x78, 0x1e, 0xbe,
  0x56, 0x18, 0x19, 0x3d, 0xe3, 0xa5, 0xd4, 0xbd, 0xd7, 0x4f, 0xa6, 0x3e,
  0x81, 0x9c, 0x23, 0x3d, 0x49, 0x2a, 0x03, 0x3e, 0x83, 0xcd, 0xd6, 0xbe,
  0x2f, 0x63, 0x1d, 0x3e, 0xb6, 0xc3, 0x93, 0x3e, 0x15, 0xc1, 0x10, 0x3c,
  0x99, 0x74, 0x17, 0xbe, 0xc6, 0x8f, 0xa0, 0xbe, 0x3e, 0x79, 0x4b, 0x3e,
  0xa0, 0xa2, 0x10, 0x3e, 0x07, 0x12, 0x17, 0x3e, 0x39, 0x56, 0xbc, 0x3e,
  0x8e, 0xd4, 0x3a, 0xbe, 0xea, 0xeb, 0xe7, 0xbb, 0xad, 0x1f, 0xa8, 0xbe,
  0x83, 0x5f, 0x64, 0x3e, 0xc5, 0x1b, 0xa1, 0xbe, 0x3d, 0xd8, 0xcd, 0x3d,
  0x60, 0x0a, 0x65, 0xbe, 0x28, 0xbb, 0xd8, 0xbd, 0x1f, 0x1e, 0x38, 0x3e,
  0x08, 0x10, 0x88, 0x3b, 0x79, 0x9b, 0x34, 0x3b, 0xa7, 0x25, 0x7a, 0xbe,
  0x8f, 0x08, 0x83, 0x3e, 0x40, 0x6e, 0x8f, 0x3e, 0x07, 0x15, 0xf5, 0x3d,
  0x77, 0x0e, 0x84, 0x3e, 0x33, 0x74, 0x8b, 0xbd, 0x89, 0xd4, 0x02, 0x3e,
  0xfd, 0x6b, 0x4c, 0xbe, 0xc0, 0x0d, 0xdc, 0x3d, 0xde, 0x44, 0x73, 0xbe,
  0x0c, 0xed, 0x86, 0x3d, 0xf9, 0x0c, 0xf8, 0xbe, 0x81, 0x11, 0x01, 0x3e,
  0x6a, 0x17, 0xa6, 0x3e, 0x7e, 0xb2, 0x57, 0xbc, 0xdc, 0x84, 0x1b, 0x3e,
  0x9e, 0x9e, 0x04, 0xbf, 0x63, 0x60, 0x19, 0x3e, 0x3c, 0x2e, 0x25, 0x3f,
  0xcd, 0x57, 0xc6, 0x3d, 0x96, 0x97, 0x81, 0x3e, 0x26, 0x8f, 0x06, 0xbe,
  0xc9, 0xa5, 0x32, 0x3e, 0x22, 0x42, 0xdb, 0xbe, 0x0b, 0x61, 0xdf, 0x3d,
  0x09, 0x0d, 0xa5, 0x3c, 0x73, 0x0c, 0xdd, 0x3c, 0xed, 0x2e, 0x15, 0x3d,
  0xaa, 0x00, 0xdc, 0x3e, 0x2d, 0x39, 0x66, 0x3e, 0x8a, 0x4e, 0x0b, 0x3d,
  0xdc, 0xf1, 0xfa, 0x3c, 0x8b, 0xa4, 0x27, 0xbe, 0x68, 0x26, 0xe7, 0x3d,
  0x81, 0x71, 0x17, 0x3f, 0x84, 0xa1, 0x22, 0xbe, 0xf0, 0xf2, 0x45, 0x3e,
  0xb1, 0x61, 0x25, 0xbe, 0x1b, 0xbd, 0x95, 0x3d, 0xbf, 0x5a, 0x7d, 0x3d,
  0x5a, 0x67, 0xf4, 0x3d, 0xeb, 0xe8, 0x0f, 0xbe, 0x3e, 0x04, 0x4a, 0xbc,
  0x58, 0xc7, 0x4e, 0xbd, 0x6c, 0xf8, 0x6b, 0xbd, 0x64, 0x1d, 0xb5, 0xbe,
  0xc5, 0xc1, 0x9f, 0x3d, 0xd5, 0xc4, 0x1e, 0x3d, 0x53, 0x59, 0x20, 0xbe,
  0x49, 0xb5, 0x56, 0xbe, 0x7a, 0x52, 0xd8, 0x3d, 0x59, 0xc1, 0x26, 0xbe,
  0xa8, 0xd8, 0x29, 0xbd, 0xe8, 0xe9, 0x6c, 0xbd, 0x5b, 0x71, 0x8f, 0xbe,
  0x3d, 0xe8, 0x89, 0x3e, 0x64, 0x86, 0x94, 0x3d, 0x2d, 0x9b, 0x24, 0x3e,
  0xfa, 0xf5, 0x0f, 0x3e, 0xf7, 0xcb, 0x2d, 0x3e, 0x70, 0x0e, 0xb8, 0xbd,
  0xef, 0xd6, 0x60, 0xbe, 0xbd, 0x15, 0xc4, 0xbe, 0xb5, 0xdc, 0xe9, 0x3d,
  0xa6, 0x0a, 0xa7, 0xbd, 0x32, 0x80, 0x4d, 0xbe, 0xcc, 0x0c, 0xbf, 0xbd,
  0x88, 0xde, 0x92, 0xbe, 0x8f, 0x9c, 0x07, 0xbe, 0x99, 0x14, 0x36, 0x3d,
  0xcc, 0x96, 0x55, 0x3d, 0x82, 0x8d, 0xce, 0x3e, 0x22, 0xcb, 0x6c, 0xbe,
  0x30, 0xac, 0x22, 0x3e, 0xfb, 0x6d, 0xc0, 0x3d, 0xb4, 0xd4, 0x21, 0x3e,
  0x9c, 0xab, 0x81, 0xbe, 0x97, 0xd7, 0x1d, 0xbe, 0x88, 0x47, 0x12, 0xbf,
  0x9e, 0x4d, 0xc6, 0x3e, 0x33, 0xbe, 0xfc, 0x3d, 0x66, 0x45, 0xfa, 0xbc,
  0xe2, 0xfc, 0x65, 0xbe, 0x44, 0xa3, 0xd8, 0xbc, 0xc4, 0xe0, 0xd9, 0xbe,
  0x1c, 0x29, 0xa2, 0x3c, 0x77, 0xbb, 0x40, 0x3e, 0x65, 0x99, 0xaa, 0x3e,
  0x26, 0x1d, 0xc0, 0xbe, 0xae, 0xe5, 0x4f, 0x3e, 0x19, 0x35, 0x9b, 0x3d,
  0x1d, 0x68, 0x7d, 0x3d, 0x9c, 0x2d, 0x85, 0xbe, 0x6f, 0x21, 0x87, 0xbe,
  0x9d, 0x82, 0xda, 0xbe, 0x71, 0xc4, 0x9f, 0x3e, 0x6d, 0x76, 0x03, 0x3d,
  0xad, 0xe8, 0xd6, 0x3c, 0xa5, 0x88, 0x7e, 0xbe, 0x32, 0x8a, 0xf8, 0xbd,
  0xa2, 0x85, 0xa9, 0xbe, 0x3a, 0x31, 0x09, 0xbd, 0x50, 0x91, 0x01, 0x3e,
  0x96, 0x12, 0xd4, 0x3e, 0x11, 0x9f, 0xc1, 0xbc, 0x4f, 0x57, 0x6d, 0x3e,
  0xe6, 0x66, 0x06, 0x3d, 0x99, 0x42, 0xe7, 0x3c, 0xd3, 0xd4, 0x51, 0xbe,
  0x82, 0x1b, 0x3f, 0x3d, 0xab, 0x6c, 0xa6, 0xbe, 0x6b, 0x3e, 0xab, 0x3e,
  0x0d, 0x57, 0x0f, 0x3e, 0xa9, 0x8c, 0x8d, 0x3c, 0xb2, 0x0b, 0x27, 0xbd,
  0xdd, 0x2b, 0x1e, 0x3d, 0x97, 0xd7, 0x11, 0xbf, 0x94, 0x3f, 0x33, 0xbd,
  0xd8, 0x3b, 0xd0, 0x3d, 0x88, 0x59, 0xf0, 0x3e, 0x4b, 0x1d, 0x96, 0xbd,
  0x19, 0x6c, 0x5f, 0x3e, 0x7d, 0x53, 0x94, 0xbc, 0x8e, 0x50, 0x9b, 0x3d,
  0xcd, 0x6f, 0xa2, 0xbd, 0x53, 0xbb, 0x06, 0xbd, 0x62, 0x85, 0xc4, 0xbe,
  0xda, 0xaa, 0x97, 0xbe, 0x6e, 0xd9, 0x95, 0x3d, 0xde, 0xf9, 0xb1, 0xbd,
  0x98, 0x7c, 0x39, 0xbe, 0x17, 0x4d, 0xbe, 0xbd, 0x26, 0x26, 0xa1, 0xbe,
  0x7a, 0xa7, 0x11, 0x3d, 0x9a, 0x20, 0x02, 0x3d, 0x8f, 0x6b, 0xd8, 0x3e,
  0xfa, 0xc7, 0xb4, 0xbd, 0xb5, 0xae, 0xd6, 0x3c, 0xc5, 0x97, 0xcc, 0x3b,
  0xe8, 0xaf, 0x0d, 0xbe, 0x35, 0x8d, 0x9a, 0x3e, 0xfa, 0x77, 0x6e, 0xbe,
  0x3c, 0x97, 0x0f, 0xbe, 0xa5, 0xe9, 0x07, 0x3d, 0xfa, 0xb7, 0x63, 0xbd,
  0x13, 0x7f, 0xce, 0x3d, 0xcf, 0x90, 0xcd, 0x3e, 0xac, 0xa9, 0x59, 0xbd,
  0xb1, 0x89, 0x04, 0xbe, 0x56, 0xf9, 0x56, 0xbd, 0x86, 0xfa, 0x14, 0xbd,
  0xb7, 0xad, 0x8b, 0x3e, 0xa1, 0x32, 0x26, 0x3e, 0xd7, 0x17, 0xb9, 0x3d,
  0xd3, 0xe5, 0x21, 0x3e, 0xd1, 0x7d, 0x82, 0xbe, 0x95, 0x4f, 0xac, 0xbc,
  0x21, 0xab, 0xe5, 0x3e, 0x00, 0x7a, 0x97, 0x3d, 0x95, 0x92, 0xb7, 0xbe,
  0x07, 0x2f, 0x97, 0xbe, 0x8c, 0x36, 0x77, 0x3d, 0x75, 0x5c, 0xb1, 0x3e,
  0xbd, 0x80, 0x01, 0x3d, 0xe3, 0x1d, 0x85, 0x3e, 0x4a, 0xa1, 0x9e, 0xbe,
  0x18, 0x20, 0xc0, 0xbb, 0xc2, 0x2f, 0x9e, 0xbd, 0x14, 0xcf, 0x37, 0x3d,
  0x8c, 0x71, 0x52, 0x3e, 0x47, 0xaa, 0xb3, 0x3c, 0x71, 0xe8, 0x9f, 0xbe,
  0xb6, 0xe7, 0xe1, 0x3d, 0xbf, 0x0b, 0xe5, 0x3e, 0xad, 0x61, 0x3d, 0x3d,
  0x74, 0xad, 0x3e, 0xbe, 0xe6, 0xd7, 0x01, 0xbf, 0x01, 0x11, 0x1e, 0x3e,
  0xfd, 0xe3, 0x03, 0x3f, 0x8a, 0x29, 0xfb, 0xbd, 0x50, 0x1d, 0xd8, 0x3e,
  0xd8, 0xaa, 0xd8, 0xbe, 0x17, 0x84, 0x7b, 0x3e, 0x4d, 0xbe, 0x44, 0xbe,
  0x44, 0x32, 0x35, 0x3e, 0x05, 0xa6, 0x95, 0x3c, 0x6a, 0x70, 0x50, 0x3d,
  0x15, 0xfb, 0x94, 0xbe, 0x0d, 0xf3, 0xf7, 0x3d, 0x4b, 0x45, 0xd7, 0x3e,
  0xa6, 0xc1, 0x45, 0x3d, 0x33, 0x1f, 0x8d, 0x3d, 0x92, 0x3d, 0x80, 0xbe,
  0xa5, 0x31, 0x8b, 0x3e, 0x80, 0x0e, 0x95, 0x3e, 0xd7, 0xd4, 0x85, 0x3d,
  0xa0, 0x67, 0xa0, 0x3e, 0xe8, 0x02, 0xd3, 0xbe, 0xb3, 0x80, 0xe2, 0x3d,
  0xf1, 0xa1, 0x5a, 0xbe, 0x3e, 0x74, 0xa9, 0x3e, 0x96, 0x13, 0x0c, 0xbc,
  0x2c, 0x63, 0x81, 0x3d, 0x01, 0x52, 0xb3, 0xbe, 0xab, 0x9b, 0x34, 0x3e,
  0x13, 0x26, 0x20, 0x3e, 0xa0, 0xd9, 0x73, 0x3c, 0x74, 0x52, 0xcf, 0xbd,
  0x24, 0xde, 0x25, 0xbe, 0x65, 0x05, 0x4d, 0x3e, 0x1a, 0x00, 0xa9, 0x3e,
  0x78, 0x78, 0x0c, 0x3e, 0x03, 0x33, 0xaf, 0x3e, 0xbd, 0xb8, 0x97, 0xbe,
  0x6e, 0x04, 0x73, 0xbd, 0x74, 0x73, 0x2c, 0xbe, 0x40, 0x8e, 0x37, 0x3e,
  0x1d, 0x92, 0x37, 0xbe, 0x80, 0x99, 0xe3, 0x3d, 0xd0, 0xf1, 0x4b, 0xbe,
  0xed, 0xff, 0xba, 0xbc, 0x48, 0x43, 0x2c, 0x3e, 0xca, 0xee, 0xeb, 0x3c,
  0x95, 0xe8, 0x4f, 0xbe, 0xe5, 0xcd, 0x37, 0xbe, 0x53, 0x07, 0x84, 0x3e,
  0xce, 0xa1, 0xc8, 0x3e, 0x93, 0xab, 0x34, 0x3d, 0x68, 0xd3, 0xeb, 0x3e,
  0xc6, 0x1b, 0x2b, 0xbe, 0xd3, 0xfc, 0xd2, 0xbc, 0xc2, 0x5f, 0xc3, 0xbe,
  0x35, 0xce, 0x8b, 0x3d, 0x4c, 0x04, 0xef, 0xbd, 0x3b, 0x55, 0x98, 0x3d,
  0xee, 0xbd, 0x59, 0xbe, 0x61, 0x60, 0xfb, 0xbc, 0x17, 0x7c, 0x19, 0x3f,
  0x5e, 0x49, 0x54, 0x3b, 0xd7, 0xfc, 0x22, 0xbe, 0xe3, 0x63, 0xa6, 0xbe,
  0x07, 0xd4, 0x4d, 0x3e, 0x52, 0x94, 0xb9, 0x3e, 0xe3, 0x92, 0xaf, 0x3d,
  0x1f, 0x8c, 0x55, 0x3e, 0x5c, 0xef, 0x98, 0xbe, 0x6f, 0xdd, 0x24, 0x3e,
  0x83, 0x43, 0xa8, 0xbe, 0x7c, 0x97, 0x13, 0x3e, 0x0c, 0x22, 0x7e, 0x3d,
  0xea, 0x02, 0x3e, 0x3e, 0x6d, 0x8f, 0xda, 0x3b, 0xa7, 0xbe, 0x7b, 0x3e,
  0xe6, 0x41, 0x5f, 0x3e, 0x1b, 0x10, 0x27, 0x3d, 0xcb, 0x85, 0xba, 0xbc,
  0x22, 0x5d, 0x91, 0xbe, 0x0c, 0xf1, 0x0b, 0xbd, 0x65, 0xc8, 0x79, 0xbd,
  0x85, 0x57, 0x8f, 0xbe, 0x46, 0x9f, 0x3d, 0x3e, 0xb8, 0xdf, 0x69, 0xbe,
  0xa9, 0x9d, 0x59, 0xbb, 0x3e, 0x49, 0x51, 0xbd, 0x50, 0x7c, 0x72, 0xbe,
  0xe8, 0xb8, 0x23, 0xbd, 0xb1, 0x2f, 0x9e, 0xbe, 0x56, 0x9d, 0x23, 0xbf,
  0xd1, 0x25, 0x97, 0xbb, 0xd2, 0x13, 0x37, 0xbe, 0xbf, 0x0f, 0xb9, 0xbc,
  0x72, 0x1a, 0xf7, 0xbd, 0x56, 0xfa, 0x6c, 0xbf, 0xda, 0x58, 0x0a, 0xbc,
  0x5b, 0x56, 0xaf, 0xbe, 0x94, 0x52, 0x64, 0x3b, 0xa5, 0x66, 0x03, 0x3d,
  0xbf, 0xd3, 0xec, 0xbe, 0x41, 0x27, 0xb8, 0xbd, 0xe4, 0x7c, 0x2e, 0xbe,
  0x0e, 0xe7, 0x88, 0xbc, 0xb1, 0xd1, 0x81, 0xbe, 0x66, 0x8d, 0xfd, 0xbe,
  0x13, 0x4d, 0xe6, 0xbe, 0xf9, 0x86, 0x66, 0xbe, 0xab, 0x03, 0xc7, 0xbd,
  0x9d, 0xa3, 0x27, 0xbc, 0xc8, 0x6a, 0xf3, 0x3d, 0x12, 0x92, 0x5e, 0xbe,
  0xf7, 0x0d, 0x37, 0xbd, 0x25, 0x4b, 0x6a, 0xbe, 0x6a, 0x22, 0x4f, 0xbb,
  0x24, 0xab, 0xcb, 0xbe, 0xa5, 0x66, 0x44, 0xbe, 0x4e, 0xbf, 0x15, 0xbe,
  0x2e, 0x56, 0xd0, 0xbe, 0x38, 0x14, 0xce, 0x3d, 0x91, 0xf4, 0x87, 0xbd,
  0xd4, 0xba, 0xfe, 0xbe, 0xf4, 0xd9, 0x33, 0xbe, 0x58, 0x5f, 0xc0, 0x3d,
  0x13, 0x72, 0x22, 0xbe, 0x1b, 0x27, 0x6e, 0xbc, 0xf1, 0xc5, 0xdf, 0x3d,
  0x0a, 0xbe, 0x9a, 0xbd, 0xde, 0x18, 0x14, 0xbe, 0xbc, 0x54, 0xb2, 0xbd,
  0xdc, 0x11, 0x62, 0x3c, 0x40, 0x8f, 0x96, 0xbe, 0xfa, 0xe8, 0x54, 0x3b,
  0x85, 0xb3, 0xa3, 0x3d, 0x6e, 0xd5, 0xa0, 0xbe, 0x2f, 0xe6, 0x41, 0xbd,
  0x0a, 0x77, 0xed, 0xbd, 0x66, 0x42, 0x80, 0xbe, 0xb1, 0xe8, 0x99, 0x3d,
  0xb7, 0xba, 0xb4, 0x3d, 0x58, 0x78, 0x09, 0xbe, 0x33, 0xc4, 0x24, 0xbd,
  0xfa, 0x98, 0x8c, 0xbe, 0x38, 0xd1, 0x6d, 0x3c, 0x54, 0x0f, 0x9a, 0xbe,
  0xd3, 0xe9, 0x83, 0xbe, 0x72, 0x55, 0x25, 0xbc, 0xba, 0xb5, 0x1b, 0xbe,
  0x5e, 0x4d, 0x84, 0x3c, 0x68, 0x4c, 0xae, 0xbc, 0x87, 0x4d, 0xbf, 0x3c,
  0xcc, 0x66, 0x72, 0x3d, 0x60, 0x8f, 0x88, 0x3e, 0xf1, 0x7f, 0xab, 0x3d,
  0xb9, 0x5a, 0x39, 0x3d, 0x1c, 0x06, 0x25, 0xbd, 0x4f, 0x53, 0x5b, 0xbd,
  0xdd, 0xca, 0x0e, 0x3c, 0xc5, 0x6c, 0x3c, 0x3e, 0x4d, 0xc8, 0xd0, 0x3b,
  0x02, 0xc0, 0x2b, 0xbe, 0xfd, 0xb0, 0x8f, 0x3d, 0x43, 0x90, 0xd7, 0x3c,
  0x36, 0xb8, 0xe0, 0x3d, 0x25, 0x66, 0xdc, 0x3c, 0x21, 0x9e, 0x01, 0xbe,
  0x2f, 0x38, 0xe9, 0x3d, 0x8b, 0xfb, 0x34, 0xbe, 0x58, 0x6b, 0x5e, 0x3e,
  0x3c, 0x6d, 0x80, 0xbd, 0xbe, 0x7a, 0x8b, 0x3d, 0x4e, 0xb9, 0x34, 0xbe,
  0x4d, 0x95, 0x95, 0xbe, 0xf2, 0xbe, 0x8c, 0x3c, 0x54, 0xe0, 0xaa, 0x3e,
  0xc8, 0x30, 0xb5, 0x3c, 0x45, 0xd5, 0xc4, 0xbc, 0xb8, 0xec, 0x24, 0xbd,
  0xdd, 0x89, 0x82, 0xbd, 0xe0, 0xeb, 0xc3, 0xbd, 0x19, 0xb4, 0x26, 0x3d,
  0x23, 0xc9, 0xa4, 0x3e, 0x04, 0x36, 0x5a, 0x3d, 0xe4, 0x55, 0x9e, 0xbd,
  0x99, 0xe6, 0xa4, 0x3d, 0x77, 0xda, 0x10, 0xbc, 0x65, 0xfa, 0x1a, 0x3c,
  0xb0, 0xc8, 0x1c, 0x3a, 0x32, 0xf8, 0x16, 0xbe, 0x87, 0xb2, 0xf2, 0x3c,
  0xa3, 0x9f, 0x52, 0x3d, 0xec, 0x29, 0xc0, 0x3d, 0x0e, 0x36, 0xd8, 0x3d,
  0xf2, 0xcf, 0x09, 0x3e, 0xcb, 0x55, 0x31, 0x3d, 0x09, 0x0a, 0x0f, 0xbf,
  0x45, 0x72, 0x2b, 0x3d, 0x21, 0x05, 0x39, 0x3c, 0x85, 0xdd, 0x85, 0x3d,
  0x7a, 0x4a, 0x5b, 0xbd, 0x8c, 0x43, 0x80, 0xbd, 0xd8, 0x52, 0xe0, 0xbd,
  0x9b, 0x4c, 0x21, 0x3e, 0xea, 0xba, 0x10, 0xbf, 0xbf, 0xee, 0x50, 0xbd,
  0xcc, 0xd6, 0x91, 0xbd, 0x59, 0x2f, 0x6c, 0xbe, 0x64, 0xe0, 0x84, 0x3e,
  0x68, 0x47, 0x92, 0xbe, 0x85, 0xf5, 0x8f, 0xbe, 0x0e, 0x0d, 0xd9, 0xbc,
  0x4e, 0xb1, 0x94, 0xbe, 0x66, 0x31, 0x26, 0x3d, 0x0e, 0xcc, 0x4f, 0xbe,
  0x6a, 0x84, 0x8e, 0xbe, 0x60, 0x56, 0xa2, 0x3d, 0x42, 0xde, 0x54, 0xbe,
  0xa2, 0x9b, 0x61, 0xbd, 0x7a, 0xcd, 0x34, 0x3d, 0x83, 0xcc, 0x94, 0xbe,
  0x2d, 0x3c, 0x28, 0x3d, 0xe3, 0xe5, 0xb1, 0xbc, 0x3a, 0x19, 0x83, 0xbe,
  0xe8, 0x2d, 0x09, 0x3e, 0xab, 0x90, 0x11, 0xbe, 0x0e, 0x6d, 0x3f, 0xbe,
  0x54, 0xc4, 0x32, 0x3d, 0x1a, 0x2a, 0xa0, 0xbd, 0xaf, 0x36, 0xd2, 0x3d,
  0x79, 0xc8, 0x5b, 0xbd, 0xc7, 0xbc, 0x48, 0x3c, 0x2e, 0x60, 0xbe, 0x39,
  0x34, 0xdb, 0x14, 0xbe, 0x10, 0x43, 0x80, 0xbe, 0x53, 0x31, 0x31, 0xbc,
  0xe1, 0x08, 0x64, 0x3d, 0x87, 0xab, 0xa6, 0xbd, 0x9b, 0xc5, 0x0c, 0xbd,
  0xaa, 0x89, 0x21, 0xbc, 0x09, 0xb9, 0xe7, 0x3d, 0x90, 0x77, 0xaf, 0xbd,
  0x79, 0xc5, 0x65, 0xbe, 0xe1, 0x16, 0x4c, 0x3d, 0x6d, 0x9c, 0x15, 0xbe,
  0x95, 0xce, 0x16, 0x3e, 0xff, 0xb6, 0x51, 0xba, 0xd9, 0x47, 0xfa, 0xbd,
  0x29, 0x7c, 0x3c, 0x3e, 0x21, 0x56, 0x34, 0xbe, 0x0b, 0x46, 0xf9, 0xbd,
  0x0e, 0x53, 0x63, 0x3e, 0x56, 0x23, 0x26, 0x3d, 0xae, 0xa7, 0xab, 0xbd,
  0x23, 0x3c, 0x2f, 0xbc, 0x71, 0xf0, 0xbe, 0xbd, 0x84, 0x89, 0x5b, 0x3e,
  0xb3, 0xba, 0x7f, 0xbd, 0xef, 0x80, 0x31, 0xbe, 0xac, 0x1d, 0x92, 0x3c,
  0x67, 0xf7, 0x6c, 0xbe, 0x1a, 0xe8, 0x7e, 0x3e, 0x92, 0x6c, 0xc9, 0xbd,
  0x07, 0x0a, 0x21, 0xbe, 0x09, 0xd0, 0x11, 0xbe, 0x50, 0xcf, 0xab, 0xbd,
  0xb6, 0x72, 0x60, 0xbd, 0x73, 0x98, 0xee, 0x3d, 0x5c, 0x98, 0xbd, 0x3d,
  0xcf, 0x36, 0x16, 0xbe, 0x70, 0xfe, 0x6b, 0xbc, 0x93, 0x1a, 0x2b, 0xbe,
  0xf9, 0x8b, 0x77, 0x3e, 0x10, 0xa3, 0xa8, 0xbe, 0xa6, 0x45, 0xb8, 0xbd,
  0x55, 0xa4, 0x18, 0x3e, 0xe0, 0x22, 0x3f, 0x39, 0x04, 0xb5, 0xcd, 0x3d,
  0xa2, 0x3c, 0x2d, 0x3d, 0x35, 0x5d, 0x2f, 0xbe, 0xd6, 0x0a, 0xdb, 0xbc,
  0x9f, 0x52, 0x6b, 0xbe, 0x7d, 0x63, 0x0b, 0xbe, 0x4b, 0x9d, 0x84, 0x3e,
  0xdf, 0xc3, 0x52, 0xbe, 0x06, 0x96, 0xdc, 0x3d, 0x5f, 0x85, 0x8d, 0x3c,
  0x92, 0xd9, 0x42, 0xbe, 0x77, 0xd2, 0x24, 0x3e, 0x44, 0x4f, 0xdd, 0xbe,
  0x88, 0xf4, 0x4d, 0xbe, 0xec, 0x27, 0xb3, 0x3d, 0x89, 0x98, 0xc3, 0x3d,
  0xca, 0x37, 0xb3, 0x3d, 0x50, 0x9a, 0xbf, 0xbe, 0x99, 0x1b, 0x86, 0xbe,
  0x38, 0x3b, 0x5d, 0xbc, 0x91, 0x28, 0xe0, 0xbd, 0x7d, 0x75, 0xe2, 0xbc,
  0x63, 0x8f, 0x96, 0xb9, 0xc4, 0xfa, 0xc2, 0xbe, 0xc4, 0x7f, 0xa0, 0xbd,
  0x34, 0xf7, 0xe4, 0xbc, 0x0b, 0x7b, 0x3c, 0xbe, 0xb6, 0xf9, 0x34, 0x3d,
  0x3d, 0xe7, 0x20, 0xbe, 0x08, 0xea, 0x8b, 0xbe, 0xc2, 0x3d, 0x27, 0x3e,
  0x6a, 0x1f, 0x31, 0xbe, 0x73, 0x69, 0xf5, 0x3d, 0x5f, 0xcf, 0x54, 0xbe,
  0xe4, 0x0a, 0x28, 0xbe, 0x7d, 0x39, 0x5b, 0x3d, 0x93, 0x77, 0x9b, 0xbd,
  0xc6, 0x72, 0x2a, 0xbe, 0xa5, 0x4c, 0x04, 0x3d, 0xde, 0x67, 0x0a, 0xbf,
  0xcb, 0x58, 0xbb, 0xbd, 0xaf, 0x04, 0x9c, 0xbd, 0x16, 0x90, 0x87, 0xbe,
  0x39, 0xde, 0x91, 0x3e, 0x89, 0x4a, 0x62, 0xbe, 0xd5, 0xa0, 0x9b, 0xbe,
  0xc5, 0xb0, 0x2a, 0xbd, 0x05, 0x79, 0x43, 0xbd, 0x67, 0x86, 0xf1, 0x3c,
  0xdb, 0x1b, 0x23, 0xbe, 0x5d, 0x38, 0x04, 0xbe, 0xb6, 0x99, 0x60, 0xbe,
  0x4b, 0x74, 0x74, 0xbe, 0x7e, 0x1e, 0x90, 0xbe, 0x82, 0xdc, 0x06, 0x3d,
  0x7d, 0x6b, 0x88, 0xbe, 0x5a, 0x6b, 0xce, 0xbd, 0xfa, 0x13, 0x47, 0xbd,
  0xf9, 0xc6, 0xa8, 0xbd, 0x2f, 0x34, 0xf7, 0x3d, 0x4b, 0xf0, 0x35, 0xbe,
  0x47, 0xbe, 0x05, 0x3e, 0x8c, 0xea, 0x65, 0xbb, 0x1a, 0x0b, 0x24, 0xbe,
  0x80, 0x5f, 0x4c, 0x3e, 0x92, 0xaa, 0xdd, 0xbd, 0x0c, 0x39, 0xce, 0x3d,
  0x1e, 0x47, 0x02, 0xbc, 0x43, 0xcf, 0xb1, 0xbe, 0x24, 0x22, 0x3b, 0xbe,
  0x2f, 0xdc, 0xb5, 0xbd, 0xc1, 0x28, 0xe6, 0xbd, 0xe6, 0x41, 0xed, 0xbd,
  0x8e, 0xe0, 0x2c, 0xbd, 0xa0, 0xfe, 0x02, 0x3d, 0x32, 0x9c, 0x1e, 0x3d,
  0x4e, 0xa4, 0xb4, 0xbd, 0xa9, 0xb3, 0x30, 0xbe, 0xfc, 0xe1, 0x24, 0x3d,
  0x22, 0xc7, 0x14, 0xbe, 0x44, 0xef, 0xbc, 0x3e, 0x34, 0x98, 0xc9, 0xbd,
  0xd5, 0x96, 0x72, 0xbd, 0x7d, 0xec, 0x02, 0x3e, 0x3b, 0x14, 0x67, 0xbe,
  0x1d, 0xcb, 0x97, 0xbe, 0x55, 0x45, 0x95, 0x3e, 0xe4, 0x2f, 0x53, 0x3d,
  0x66, 0x29, 0x99, 0xbd, 0x82, 0x5b, 0x8a, 0x3c, 0x85, 0x1b, 0x07, 0xbe,
  0x29, 0x48, 0xd6, 0x3d, 0x53, 0x30, 0x64, 0xbe, 0xa7, 0x53, 0xae, 0x3c,
  0xf7, 0x81, 0x10, 0x3d, 0xab, 0xec, 0x4e, 0x3d, 0x8b, 0xd5, 0x60, 0x3e,
  0xc5, 0xb7, 0x36, 0xbe, 0x56, 0x73, 0xc7, 0xbe, 0xf0, 0xdc, 0x1f, 0xbe,
  0x61, 0xb6, 0x0b, 0xbf, 0x68, 0x8b, 0xb2, 0xbe, 0x95, 0xfd, 0x6f, 0x3e,
  0x2a, 0x6b, 0x96, 0xbe, 0xf1, 0xba, 0x3b, 0x3c, 0xe3, 0x09, 0x18, 0x3d,
  0x90, 0x34, 0x32, 0xbe, 0x95, 0x1c, 0x81, 0x3e, 0x67, 0xa5, 0x88, 0xbe,
  0x88, 0xba, 0x00, 0x3e, 0x2c, 0x9e, 0x45, 0x3e, 0x88, 0x70, 0xc6, 0xbd,
  0x33, 0xb9, 0x35, 0x3e, 0x53, 0x8c, 0x7e, 0x3d, 0x5f, 0x8a, 0xab, 0xbe,
  0x64, 0x99, 0x8d, 0x3d, 0xe4, 0xa0, 0x2f, 0x3d, 0xb6, 0xef, 0x44, 0xbe,
  0xf9, 0x14, 0x52, 0x3e, 0x67, 0x50, 0x31, 0xbb, 0xbc, 0x5e, 0xde, 0xbc,
  0x9c, 0x40, 0x1f, 0x3c, 0xc9, 0x9a, 0x45, 0xbd, 0xc9, 0x0b, 0x4a, 0x3e,
  0x3e, 0x1e, 0x46, 0xbe, 0x9c, 0xe7, 0x3b, 0xbe, 0xdd, 0x62, 0x9e, 0x3e,
  0x51, 0x35, 0x3d, 0xb9, 0xb7, 0x23, 0x07, 0xbe, 0x5d, 0xaf, 0xe6, 0xbe,
  0xf1, 0xbe, 0x52, 0xbd, 0x6f, 0xf9, 0x21, 0x3d, 0xd9, 0x76, 0xa7, 0xbe,
  0x7b, 0x7b, 0xd1, 0xbd, 0xb0, 0x54, 0x6d, 0x3c, 0xc7, 0xa9, 0x2f, 0xbe,
  0x3e, 0x8d, 0xb0, 0x3d, 0x78, 0x76, 0x90, 0x3c, 0x6c, 0xe9, 0x84, 0xbe,
  0x6c, 0x07, 0x4e, 0xbe, 0xe5, 0xf9, 0x2d, 0xbe, 0x62, 0xd6, 0x29, 0xbd,
  0xf7, 0xec, 0xfa, 0xbd, 0xe5, 0x8f, 0xcb, 0xbe, 0x88, 0x7e, 0x09, 0x3e,
  0xf3, 0x1c, 0x27, 0x3d, 0x8b, 0xfd, 0x21, 0xbe, 0x99, 0xf4, 0xb0, 0xbc,
  0x15, 0x08, 0x0a, 0x3e, 0x98, 0xa2, 0x50, 0xbe, 0xdd, 0xa9, 0xa6, 0xbd,
  0xa1, 0xd9, 0xa2, 0xbe, 0x87, 0xcf, 0x22, 0xbe, 0xac, 0x42, 0x94, 0xbd,
  0x7b, 0xe3, 0x35, 0x3e, 0xd9, 0x1c, 0x71, 0xbd, 0x99, 0xaa, 0x74, 0x3e,
  0x59, 0xe1, 0x21, 0xbe, 0x43, 0xaa, 0x84, 0xbe, 0xb9, 0x7f, 0xe9, 0x3c,
  0x66, 0xcb, 0x20, 0x3d, 0x6b, 0xea, 0x58, 0x3e, 0xcd, 0xad, 0x8a, 0x3e,
  0x50, 0xd3, 0x62, 0x3d, 0xc1, 0x08, 0xce, 0xbd, 0xe5, 0x4a, 0x84, 0x3c,
  0xfa, 0x72, 0xb8, 0xbd, 0x91, 0xce, 0x44, 0x3e, 0x3f, 0x4e, 0x5e, 0x3e,
  0x83, 0x23, 0x72, 0x3b, 0x30, 0xfd, 0x45, 0x3e, 0xc2, 0xaa, 0x41, 0x39,
  0x0a, 0x30, 0x4a, 0xbe, 0xd5, 0x7a, 0x58, 0x3e, 0xba, 0x48, 0xfc, 0xb8,
  0x2f, 0x55, 0x80, 0xbe, 0xb7, 0x41, 0x2e, 0x3e, 0xb7, 0x52, 0x7a, 0x3e,
  0xc6, 0xaf, 0x05, 0x3d, 0xf1, 0xe7, 0x65, 0xbd, 0x0c, 0x61, 0xc7, 0x3d,
  0x93, 0x4f, 0x1d, 0xbd, 0xf1, 0x3c, 0x5f, 0xbe, 0xba, 0xd0, 0x50, 0x3e,
  0xb6, 0xb9, 0x94, 0x3d, 0x08, 0xc1, 0xc7, 0x3d, 0x24, 0xce, 0x35, 0xbd,
  0x07, 0xb7, 0x1c, 0x3e, 0xc4, 0xd7, 0x8b, 0xbe, 0x1b, 0x81, 0x79, 0x3e,
  0xf2, 0xb6, 0x0b, 0x3d, 0x38, 0xc4, 0xc7, 0xbd, 0x71, 0x77, 0xc9, 0xbd,
  0x92, 0x32, 0xc6, 0xbd, 0x7f, 0x95, 0xff, 0xbd, 0x8c, 0x58, 0x39, 0xbb,
  0x25, 0x11, 0x1c, 0xbb, 0x03, 0x2b, 0x32, 0x3c, 0x8c, 0x61, 0x3d, 0xbe,
  0x05, 0x3e, 0x0e, 0xbe, 0x3d, 0x6a, 0x2d, 0x3e, 0x3e, 0x03, 0x34, 0xbd,
  0xe5, 0x40, 0x4c, 0x3d, 0xb6, 0xd1, 0x85, 0xbe, 0x1e, 0x09, 0xf2, 0xbe,
  0x78, 0xee, 0xa8, 0x3d, 0x31, 0x67, 0xe9, 0xbe, 0x33, 0x5d, 0x26, 0xbe,
  0x02, 0xb0, 0x1d, 0xbe, 0x92, 0xcb, 0xa1, 0xbe, 0x3e, 0x3b, 0x06, 0xbe,
  0xc1, 0xe0, 0xcb, 0x3d, 0x7c, 0x79, 0xc1, 0x3d, 0xd8, 0x91, 0xb5, 0x3d,
  0x04, 0x39, 0x07, 0xbe, 0xf5, 0x2e, 0x03, 0x3e, 0xd4, 0x52, 0x42, 0x3c,
  0xaa, 0x58, 0x05, 0xbe, 0xac, 0xfc, 0x4d, 0xbe, 0xce, 0x3f, 0x26, 0xbd,
  0x9b, 0x88, 0xb6, 0xbe, 0x29, 0xcc, 0x06, 0x3d, 0x31, 0x0c, 0xfe, 0xbe,
  0x3e, 0x2d, 0x27, 0xbe, 0x14, 0xc0, 0x2e, 0xbe, 0x57, 0x0f, 0x80, 0xbe,
  0x3f, 0x89, 0xf4, 0x3d, 0x93, 0x4b, 0x37, 0x3e, 0xbb, 0x9e, 0x7b, 0xbd,
  0xfe, 0xcd, 0x36, 0x3d, 0x8c, 0x3b, 0x22, 0xbe, 0x21, 0x39, 0x87, 0x3b,
  0x2b, 0x63, 0x2e, 0xbd, 0x34, 0xdd, 0x35, 0x3c, 0x90, 0x4b, 0x38, 0x3d,
  0x89, 0x76, 0x85, 0x3c, 0xc3, 0x43, 0x98, 0xbe, 0xfd, 0x44, 0x7d, 0x3e,
  0x4e, 0xf9, 0x81, 0xbe, 0x17, 0xec, 0x4b, 0x3d, 0x9b, 0x40, 0x72, 0xbc,
  0xd3, 0xf0, 0xcb, 0xbd, 0xb4, 0xa4, 0x33, 0xbe, 0x15, 0xa5, 0xc2, 0x3d,
  0x08, 0x22, 0x05, 0xbe, 0xff, 0x90, 0x3a, 0xbd, 0x9d, 0xeb, 0xb6, 0xbd,
  0x34, 0x66, 0x36, 0xbd, 0xfc, 0x5a, 0x42, 0x3d, 0x3b, 0x3a, 0x22, 0xbe,
  0x83, 0x39, 0x6d, 0xbe, 0xdf, 0x42, 0x2f, 0xbd, 0xdb, 0xd1, 0x3e, 0xbe,
  0xd2, 0x73, 0x72, 0xbe, 0xbf, 0x22, 0x2e, 0xbe, 0xb7, 0xb4, 0x0f, 0xbe,
  0xfc, 0xce, 0x21, 0xbe, 0x6b, 0x75, 0xeb, 0xbd, 0x44, 0x72, 0xf0, 0xbd,
  0x27, 0x92, 0x1a, 0x3f, 0x7b, 0x7b, 0x1d, 0x3d, 0xca, 0x25, 0x36, 0xbe,
  0x51, 0xd2, 0x26, 0xbd, 0x44, 0x59, 0x2b, 0x3d, 0x15, 0xb8, 0x90, 0x3e,
  0x7a, 0x18, 0x10, 0x3d, 0x09, 0x07, 0x4c, 0x3b, 0x81, 0xea, 0x43, 0xbe,
  0xae, 0xc1, 0x01, 0x3e, 0xc7, 0x70, 0xe0, 0x3e, 0x36, 0x64, 0xb4, 0xbd,
  0xc5, 0xd8, 0xa9, 0x3e, 0xc4, 0x64, 0x4d, 0xbd, 0xe4, 0x84, 0x72, 0xbe,
  0x73, 0x86, 0x81, 0xbe, 0x5f, 0x49, 0xe7, 0x3e, 0x18, 0xfb, 0x97, 0x3d,
  0x0f, 0xca, 0x03, 0xbd, 0x10, 0x4e, 0xa6, 0xbd, 0xc7, 0xa1, 0x77, 0x3e,
  0x20, 0xf5, 0xc1, 0x3e, 0xa4, 0x9d, 0x04, 0xbe, 0xc6, 0x89, 0xf1, 0x3a,
  0x42, 0x17, 0x98, 0x3c, 0x1e, 0x21, 0xaa, 0x3e, 0x57, 0x37, 0x03, 0x3f,
  0xc9, 0x38, 0xdc, 0x3c, 0x6e, 0xf1, 0xa6, 0x3e, 0xa1, 0x84, 0xd2, 0xbd,
  0x47, 0x1d, 0x00, 0x3d, 0xa9, 0x2c, 0x0c, 0xbe, 0x38, 0x56, 0x8c, 0x3e,
  0xe5, 0x8d, 0x23, 0x3e, 0x8a, 0x38, 0x43, 0xbe, 0x9e, 0x8e, 0x80, 0x3d,
  0x6b, 0x4b, 0x79, 0x3e, 0x84, 0xf8, 0x87, 0x3e, 0xc8, 0x6f, 0x49, 0xbe,
  0x0e, 0xa0, 0x48, 0x3e, 0x6a, 0xc7, 0xb7, 0xbd, 0x8a, 0xa1, 0xac, 0x3e,
  0xfd, 0x7f, 0x75, 0x3e, 0x70, 0xb7, 0x90, 0x3d, 0x78, 0x18, 0x72, 0x3d,
  0xe1, 0xab, 0x9e, 0xba, 0x3c, 0x29, 0xe3, 0x3d, 0x73, 0xff, 0x37, 0xbb,
  0x17, 0xdb, 0x9a, 0x3e, 0x08, 0x96, 0x28, 0xbc, 0x79, 0xeb, 0x81, 0x3d,
  0x3b, 0x98, 0x8c, 0x3c, 0x91, 0xb3, 0x73, 0x3e, 0x53, 0x53, 0xf1, 0x3e,
  0xea, 0x11, 0xe4, 0x3c, 0x67, 0x55, 0x7b, 0x3e, 0xc9, 0x70, 0x98, 0xbd,
  0xd3, 0xa5, 0x5d, 0x3e, 0xc4, 0x10, 0x70, 0x3e, 0xc6, 0x77, 0x7b, 0x3d,
  0x01, 0xf9, 0x75, 0x3c, 0x36, 0x51, 0xc4, 0x3c, 0xbc, 0x71, 0xa3, 0x3d,
  0xa1, 0x3f, 0x46, 0xbe, 0xb7, 0x9a, 0x69, 0x3e, 0x52, 0xd9, 0xc7, 0xbd,
  0x46, 0x71, 0x40, 0xbe, 0xbc, 0x0e, 0x34, 0x3d, 0x98, 0x8b, 0x9f, 0x3d,
  0x2c, 0xfd, 0xb3, 0x3e, 0x9d, 0x41, 0x93, 0xbe, 0x2c, 0xa1, 0xae, 0xbd,
  0x70, 0xe6, 0x7e, 0x3c, 0x27, 0x6e, 0x21, 0x3e, 0x1f, 0x66, 0x9e, 0x3e,
  0x57, 0x2c, 0xa8, 0x3d, 0x7d, 0x12, 0xb6, 0x3c, 0x33, 0xc6, 0x57, 0x3c,
  0x73, 0xad, 0x34, 0xbe, 0x07, 0x5f, 0xa1, 0xbe, 0xe3, 0x96, 0x80, 0x3e,
  0x82, 0x0b, 0x82, 0xbe, 0x16, 0x27, 0x4a, 0xbe, 0xef, 0x41, 0x17, 0xbd,
  0x96, 0x1b, 0x5e, 0x3d, 0xd0, 0x5a, 0xbe, 0x3e, 0x8b, 0x0b, 0x7b, 0xbe,
  0x11, 0x7f, 0x97, 0xbd, 0x6e, 0x5d, 0x50, 0xbd, 0x47, 0xdb, 0x42, 0x3e,
  0xbc, 0x7f, 0x26, 0x3f, 0x09, 0xf7, 0xda, 0x3d, 0x51, 0x42, 0x18, 0x3d,
  0xda, 0x09, 0xf2, 0xbd, 0x5a, 0x2d, 0x7b, 0xbc, 0x78, 0x2d, 0x85, 0xbe,
  0x23, 0x2f, 0xba, 0xbd, 0xe7, 0xca, 0xd0, 0xbe, 0x23, 0xd3, 0xd4, 0xbd,
  0x1e, 0x70, 0x43, 0xbe, 0x8f, 0x42, 0x7a, 0x3d, 0x27, 0xbc, 0x51, 0x3d,
  0xc8, 0x99, 0x26, 0xbd, 0xbb, 0xf2, 0xfc, 0xbd, 0x32, 0xb4, 0xa4, 0x3d,
  0xe8, 0x06, 0xb9, 0x3d, 0x14, 0x71, 0xdc, 0x3e, 0x80, 0x00, 0x58, 0x3d,
  0x73, 0x5b, 0x78, 0xbe, 0xc1, 0x83, 0x22, 0xbe, 0x74, 0x60, 0xa2, 0x3d,
  0x02, 0xfb, 0x80, 0xbe, 0x78, 0x93, 0x0f, 0xbe, 0x67, 0x10, 0xdd, 0x3e,
  0x84, 0x66, 0x85, 0xbd, 0xfa, 0xdb, 0x9b, 0x3d, 0x34, 0xee, 0x27, 0xbe,
  0x3c, 0xac, 0x81, 0xbe, 0x7e, 0x0a, 0xfe, 0xbc, 0x64, 0xf2, 0x00, 0x3e,
  0x09, 0x0b, 0x2b, 0x3e, 0x21, 0xaa, 0xf2, 0x3c, 0x56, 0x11, 0xd7, 0xbe,
  0x7e, 0x3a, 0xd0, 0x3b, 0xdc, 0xbb, 0x32, 0xbe, 0x42, 0x88, 0xfe, 0x3c,
  0x5e, 0xd8, 0xa3, 0x3d, 0x73, 0x4f, 0xda, 0x3d, 0x97, 0xdc, 0x38, 0x3c,
  0x12, 0xbc, 0x92, 0x3d, 0x5f, 0x2a, 0xa9, 0xbc, 0xec, 0x3f, 0xfc, 0x3d,
  0x27, 0xa1, 0xae, 0x3d, 0x9d, 0xf9, 0xa1, 0xbd, 0xed, 0x75, 0x0c, 0xbd,
  0xf7, 0xbf, 0x62, 0x3d, 0xe4, 0x1b, 0x2a, 0x3d, 0x9f, 0x41, 0xaa, 0xbd,
  0xfd, 0x0c, 0x3e, 0x3e, 0x94, 0x9e, 0xe4, 0xbc, 0x48, 0x1f, 0xc1, 0xbb,
  0xb8, 0x4c, 0x54, 0xbe, 0x17, 0xe0, 0xc7, 0x3c, 0x25, 0xd3, 0x65, 0xbc,
  0x8f, 0x1b, 0x75, 0xbd, 0x30, 0xe8, 0x2e, 0x3d, 0x3e, 0xf0, 0x08, 0xbe,
  0x31, 0x56, 0xef, 0xba, 0x89, 0xef, 0x1c, 0x3e, 0x2b, 0xbf, 0xa9, 0x3c,
  0xfe, 0xed, 0xe2, 0x3b, 0x11, 0xdc, 0x6a, 0xbe, 0xe0, 0x4b, 0x47, 0x3e,
  0xcf, 0x10, 0xbc, 0xbd, 0x7b, 0xf5, 0x04, 0x3d, 0x44, 0x18, 0x91, 0x3d,
  0x6a, 0x3b, 0x13, 0xbe, 0x5e, 0x7f, 0x2a, 0xbd, 0xa8, 0x5f, 0x78, 0xbe,
  0x36, 0x2c, 0xd0, 0x3d, 0x79, 0x04, 0xff, 0xbc, 0x1d, 0xce, 0x21, 0xbe,
  0xe2, 0x38, 0xd1, 0xbd, 0xca, 0xb8, 0x3c, 0xbc, 0x81, 0xa4, 0x37, 0x3c,
  0xb9, 0x24, 0x75, 0xbd, 0x5e, 0xa1, 0x06, 0xbc, 0x1b, 0x70, 0x84, 0xbe,
  0xcb, 0x4f, 0x84, 0xbd, 0x82, 0x91, 0xa8, 0xbd, 0xe0, 0x9c, 0x26, 0xbd,
  0x51, 0xfe, 0x9e, 0xbd, 0x05, 0x06, 0x06, 0x3e, 0x4a, 0xa6, 0x6e, 0xbc,
  0x3e, 0x0f, 0x00, 0xbf, 0xa8, 0xf5, 0x15, 0xbe, 0x6f, 0x0f, 0xac, 0x3c,
  0x36, 0x36, 0x45, 0x3d, 0x95, 0xfd, 0x2d, 0xbd, 0xf7, 0x01, 0xd6, 0xbe,
  0x3f, 0x1a, 0x09, 0x3d, 0xe8, 0x55, 0xa1, 0xbc, 0x7c, 0x46, 0xc9, 0xbb,
  0x34, 0x3d, 0xa8, 0x3e, 0x95, 0x5e, 0x41, 0xbd, 0x1a, 0xc8, 0xd9, 0x3c,
  0xa1, 0xa4, 0x2d, 0x3d, 0xdc, 0xd3, 0x94, 0xbc, 0xaa, 0xa8, 0xa6, 0x3c,
  0x08, 0x91, 0x09, 0x3e, 0xa0, 0x25, 0xc2, 0xbe, 0xa1, 0xd3, 0xf4, 0xbd,
  0x05, 0xb8, 0x3c, 0xbc, 0x23, 0xe7, 0x59, 0xbd, 0x99, 0xee, 0x1e, 0xbd,
  0x4f, 0x54, 0x5a, 0xbe, 0xbe, 0x4d, 0x42, 0xbd, 0x48, 0x5f, 0xc3, 0xbd,
  0x54, 0x8d, 0x80, 0x3a, 0x8b, 0x05, 0xe6, 0x3d, 0x2f, 0x28, 0x60, 0xbe,
  0xef, 0x3f, 0x57, 0xbd, 0xea, 0x80, 0x1d, 0x3b, 0xd3, 0x23, 0xb7, 0x3d,
  0xfb, 0x8c, 0x2d, 0xbd, 0x52, 0xea, 0x80, 0xbe, 0x46, 0xad, 0x84, 0xbe,
  0xab, 0x06, 0x68, 0xbe, 0x51, 0x87, 0x09, 0x3d, 0xcd, 0x0e, 0xd3, 0x3d,
  0xe1, 0x0c, 0x8c, 0xbd, 0x3c, 0xd4, 0xc4, 0xbc, 0x04, 0xcf, 0xeb, 0x39,
  0x99, 0x6e, 0x66, 0xbd, 0x3e, 0xd5, 0x6c, 0x3c, 0x7c, 0x95, 0x2c, 0xbd,
  0x8b, 0xa6, 0x43, 0xbe, 0x25, 0xb5, 0x8d, 0xbd, 0x77, 0xa8, 0x0f, 0x3d,
  0x29, 0x40, 0xed, 0xbd, 0xb7, 0xd9, 0xfb, 0x3c, 0x6c, 0x8c, 0x7b, 0xbe,
  0x2f, 0x77, 0x1e, 0xbe, 0x43, 0xfb, 0x60, 0x3d, 0xac, 0xc2, 0x9d, 0xbe,
  0x8d, 0x4e, 0xb7, 0xbe, 0x6b, 0x81, 0xdb, 0xbe, 0x47, 0xba, 0x63, 0xbf,
  0xa2, 0x85, 0x5f, 0x3b, 0x64, 0x05, 0x02, 0xbf, 0xce, 0xe4, 0xd1, 0xbd,
  0x04, 0x34, 0x3c, 0xbe, 0x81, 0x08, 0x25, 0xbf, 0x0b, 0x29, 0x75, 0xbc,
  0x6d, 0xf6, 0x33, 0xbd, 0x2d, 0x44, 0xaf, 0x3c, 0xf7, 0xa3, 0x5e, 0xbe,
  0xff, 0x4e, 0xdf, 0xbe, 0x5a, 0x82, 0xa9, 0xbe, 0x98, 0xbc, 0x96, 0xba,
  0x9d, 0xb8, 0x5f, 0xbe, 0xc6, 0xf6, 0x74, 0xbe, 0xb7, 0xda, 0x65, 0xbe,
  0x1b, 0xff, 0x09, 0xbf, 0xb5, 0x65, 0xc6, 0xbd, 0x81, 0x37, 0xbd, 0xbe,
  0x8e, 0x70, 0xa1, 0xbd, 0x09, 0x95, 0x0d, 0xbe, 0x13, 0x4e, 0x2e, 0x3c,
  0x28, 0x7b, 0x23, 0xbe, 0x96, 0x7c, 0x09, 0xbf, 0x8c, 0xc4, 0xc4, 0x3d,
  0x48, 0x48, 0xdf, 0xbd, 0xfd, 0x12, 0x4e, 0xbf, 0x07, 0xb0, 0x3b, 0xbe,
  0xe0, 0x30, 0x85, 0xbd, 0xe5, 0x36, 0x95, 0xbe, 0x50, 0x6b, 0xac, 0xbe,
  0x54, 0xdf, 0x7c, 0xbe, 0xd4, 0x6e, 0xd4, 0xbe, 0x13, 0xef, 0x30, 0xbe,
  0x3c, 0xd4, 0xc4, 0xbe, 0xf9, 0x13, 0xb8, 0xbd, 0x7e, 0x04, 0xd8, 0xbb,
  0x7f, 0xb6, 0xd0, 0xbc, 0x79, 0xb2, 0x1b, 0xbe, 0x16, 0x38, 0xe4, 0xbd,
  0xaf, 0x33, 0x1f, 0xbd, 0xb2, 0x86, 0x68, 0xbe, 0x77, 0x34, 0x4c, 0xbf,
  0x16, 0xf0, 0x07, 0xbf, 0x61, 0xde, 0xa6, 0xbe, 0x1c, 0xfe, 0xe4, 0xbe,
  0xd8, 0xc4, 0x7a, 0xbe, 0xe5, 0x98, 0xf2, 0xbd, 0x41, 0x6f, 0x06, 0xbf,
  0xdd, 0x66, 0x87, 0x3c, 0xf1, 0xc0, 0x94, 0xbe, 0xbc, 0xec, 0xab, 0xbd,
  0x83, 0x23, 0x17, 0xbe, 0x87, 0x2d, 0x5a, 0xbd, 0xbc, 0xb8, 0x59, 0xbe,
  0xc7, 0x04, 0x57, 0xbd, 0x31, 0x49, 0x1f, 0x3c, 0x12, 0xa7, 0xf0, 0xbc,
  0x8c, 0x8b, 0x39, 0xbf, 0x15, 0xb7, 0x8f, 0xbe, 0x60, 0x71, 0xca, 0xbe,
  0x5e, 0xd2, 0x83, 0xbe, 0x0e, 0x30, 0xaf, 0x3e, 0xe6, 0x7c, 0x92, 0xbe,
  0x49, 0xa9, 0xa4, 0xbe, 0x75, 0x5d, 0x95, 0x3d, 0xa1, 0x75, 0x5a, 0xbe,
  0x91, 0x7f, 0xdd, 0xbc, 0x50, 0x82, 0xa6, 0xbe, 0x61, 0x0c, 0xd5, 0xbd,
  0x8d, 0xc5, 0x84, 0xbc, 0x32, 0x50, 0x5a, 0xbe, 0xfe, 0xce, 0x31, 0xbe,
  0x3c, 0x28, 0x89, 0xbe, 0xec, 0x03, 0xc4, 0xbe, 0x73, 0x24, 0xac, 0xbe,
  0x5a, 0x17, 0xf4, 0xbd, 0x71, 0xf0, 0x6c, 0xbe, 0x3f, 0x68, 0x5c, 0x3e,
  0x3e, 0x0a, 0x82, 0xbd, 0x14, 0x29, 0xe8, 0xbd, 0xe5, 0x24, 0xb9, 0xbd,
  0x27, 0x2f, 0x74, 0x3d, 0xd6, 0xa2, 0x41, 0xbd, 0x12, 0xd9, 0x43, 0x3e,
  0x52, 0xe9, 0x1d, 0xbe, 0x50, 0x35, 0x00, 0x3e, 0x4f, 0x06, 0xd9, 0x3b,
  0x6a, 0xd8, 0x6c, 0xbe, 0x64, 0xc2, 0x2b, 0x3e, 0x18, 0x98, 0x1e, 0xbd,
  0x95, 0xd8, 0x0f, 0x3e, 0x94, 0xe8, 0x3f, 0x3e, 0xeb, 0xd8, 0xcd, 0xbe,
  0x17, 0xfb, 0x5e, 0x3e, 0x00, 0x55, 0x44, 0xbd, 0x38, 0xf1, 0x95, 0x3b,
  0xbe, 0xa2, 0x93, 0x3e, 0xa8, 0x73, 0x0f, 0xbe, 0x8c, 0x56, 0x8d, 0x3e,
  0x63, 0x2d, 0x53, 0x3e, 0x9e, 0x07, 0xf4, 0x3c, 0xd2, 0x57, 0x46, 0x3e,
  0x5c, 0xc6, 0xb4, 0x3e, 0x87, 0xf4, 0xd5, 0xbd, 0x49, 0x08, 0xc3, 0xbe,
  0x4f, 0xe0, 0x05, 0x3d, 0xc8, 0x39, 0xe0, 0x3d, 0xaf, 0x8d, 0x18, 0x3e,
  0x89, 0xcb, 0x5d, 0xbd, 0x6b, 0xf6, 0x90, 0x3d, 0xd1, 0x86, 0xef, 0xbc,
  0xd1, 0x52, 0x87, 0xbe, 0x97, 0x1d, 0xa5, 0x3d, 0x45, 0x5a, 0xec, 0x3d,
  0x1c, 0xff, 0x8d, 0xbe, 0x3d, 0xef, 0xb2, 0x3d, 0xe2, 0x00, 0x01, 0xbe,
  0xce, 0x1e, 0x08, 0xbd, 0x66, 0x4e, 0x54, 0x3e, 0x08, 0x6a, 0x21, 0xbe,
  0x42, 0x7c, 0x40, 0x3d, 0xe4, 0xea, 0xda, 0xbd, 0xa7, 0x86, 0x8c, 0xbd,
  0x45, 0x9d, 0x13, 0xbe, 0xd5, 0xba, 0x02, 0x3e, 0x7e, 0xa0, 0x51, 0x3d,
  0xe4, 0x0a, 0x37, 0x3d, 0xaa, 0xd3, 0x2a, 0xbe, 0xdf, 0x47, 0xc6, 0xbd,
  0x9b, 0x22, 0xa1, 0xbd, 0xe7, 0xed, 0x80, 0x3d, 0x0f, 0x6c, 0x79, 0xbe,
  0xa8, 0x9c, 0xae, 0x3d, 0xdb, 0x05, 0x94, 0xbe, 0x97, 0x60, 0xbf, 0x3d,
  0x10, 0xc1, 0x8a, 0xbe, 0xd7, 0xf2, 0x3b, 0xbe, 0x15, 0x2d, 0x32, 0xbe,
  0xc2, 0xd8, 0x11, 0xbd, 0xa4, 0xe0, 0xad, 0xbc, 0xbf, 0x1e, 0x26, 0x3e,
  0x35, 0x4c, 0x38, 0xbe, 0x28, 0xfd, 0x04, 0xbd, 0x28, 0xe4, 0x8d, 0x3d,
  0x7d, 0xcc, 0x90, 0xbc, 0x7f, 0x65, 0x42, 0xbe, 0x77, 0xc9, 0x9f, 0xbd,
  0xbc, 0x51, 0x5f, 0xbe, 0x1c, 0xc3, 0x09, 0x3c, 0x2b, 0x79, 0xb7, 0xbe,
  0x2a, 0xf1, 0xc9, 0x3d, 0xfa, 0xb1, 0x81, 0xbd, 0xf3, 0x97, 0x11, 0xbd,
  0x5e, 0x88, 0x81, 0x3d, 0x3a, 0x63, 0x7a, 0xbc, 0x4a, 0xa8, 0x56, 0xbe,
  0x48, 0x04, 0x45, 0xbe, 0x6b, 0x28, 0xd3, 0xbc, 0x27, 0x9f, 0xc2, 0x3d,
  0x4e, 0x96, 0x60, 0xbd, 0xa5, 0x73, 0x1d, 0xbe, 0xe6, 0xc8, 0x4c, 0x3e,
  0xe8, 0xc8, 0x66, 0xbd, 0x77, 0xd2, 0xe1, 0xbd, 0xa3, 0x18, 0x49, 0x3b,
  0xfe, 0xb2, 0xc0, 0xbc, 0x21, 0x20, 0xdb, 0xbd, 0x01, 0x3c, 0x8c, 0x3a,
  0xe2, 0x74, 0x34, 0xbd, 0xfa, 0x1f, 0x28, 0xbe, 0x5c, 0xce, 0x55, 0xbd,
  0xb5, 0x43, 0x35, 0xbe, 0xd3, 0xdf, 0x58, 0x3e, 0x3e, 0x22, 0x30, 0x3e,
  0xa6, 0x2e, 0xae, 0xbe, 0xcb, 0x35, 0x68, 0xbe, 0x9b, 0xfc, 0xd5, 0x3c,
  0x47, 0xe8, 0x87, 0x3c, 0x6a, 0x32, 0x0c, 0xbe, 0x06, 0x2f, 0xb4, 0x3d,
  0xbf, 0xf2, 0xf3, 0x3d, 0x02, 0x08, 0x74, 0xbd, 0xe8, 0x06, 0x14, 0x3d,
  0xb6, 0x62, 0x79, 0x3c, 0x90, 0x8a, 0x11, 0xbb, 0x4a, 0x55, 0x18, 0x3b,
  0x30, 0x23, 0xad, 0xbd, 0x24, 0x84, 0xf0, 0x3d, 0x27, 0x6f, 0x15, 0x3e,
  0x94, 0xc4, 0x0c, 0xbc, 0x1c, 0xee, 0x67, 0xbb, 0xea, 0xf0, 0x53, 0xbe,
  0x9c, 0x4a, 0xe2, 0xbd, 0x39, 0xfb, 0xf7, 0xbd, 0x6c, 0x90, 0x1b, 0x3c,
  0x85, 0xb1, 0xdc, 0x3d, 0x16, 0x06, 0x1c, 0xbe, 0xc3, 0xc9, 0x9e, 0xbe,
  0x2e, 0x26, 0x0f, 0x3d, 0x7f, 0xee, 0x8e, 0xbe, 0x50, 0x28, 0xa1, 0x3d,
  0xd6, 0x21, 0x9f, 0xbd, 0xa6, 0x2f, 0x4f, 0xbd, 0xef, 0x76, 0xac, 0xbd,
  0x10, 0x09, 0x86, 0xbe, 0x78, 0x72, 0x08, 0xbd, 0x98, 0x59, 0x08, 0xbe,
  0x4c, 0xb0, 0xc1, 0xbe, 0xde, 0x59, 0x4e, 0xbe, 0x3b, 0x79, 0x08, 0x3e,
  0xc5, 0x83, 0x3c, 0xbe, 0xce, 0x68, 0x50, 0xbe, 0x9e, 0xe8, 0xa0, 0x3b,
  0xd9, 0xc3, 0x0a, 0xbe, 0xef, 0x11, 0x9a, 0x3d, 0x1b, 0xf9, 0x93, 0x3b,
  0x09, 0x1d, 0xd7, 0x3c, 0xc9, 0x5d, 0x3c, 0xbe, 0xf5, 0x35, 0x5a, 0x3d,
  0x21, 0xc2, 0x52, 0xbd, 0x6a, 0x51, 0x09, 0xbe, 0x73, 0x18, 0x52, 0xbe,
  0x4f, 0x04, 0xa3, 0xbd, 0xb2, 0xab, 0xe0, 0xbd, 0x92, 0xfe, 0xa9, 0x3d,
  0x56, 0x00, 0x05, 0x3e, 0xfb, 0x00, 0x81, 0xbe, 0x9b, 0x53, 0x4f, 0xbe,
  0x32, 0x31, 0xe0, 0x3d, 0xe9, 0xf2, 0xb9, 0x3c, 0x68, 0x5d, 0x32, 0xbe,
  0x4f, 0x2f, 0x39, 0xbe, 0x6e, 0x27, 0x06, 0xbe, 0x1a, 0x64, 0x73, 0xbe,
  0xb8, 0xd0, 0xae, 0xbc, 0xf8, 0x32, 0x69, 0xbe, 0x2a, 0x65, 0x52, 0xbe,
  0xb3, 0x08, 0x5e, 0xbe, 0x6c, 0x63, 0x62, 0xbe, 0xe8, 0x2b, 0xfd, 0xbc,
  0x24, 0x8d, 0x50, 0xbe, 0x6f, 0x6b, 0xda, 0x3d, 0xd0, 0x5d, 0x80, 0xbe,
  0xd5, 0xd2, 0x88, 0x3d, 0x3b, 0x79, 0x54, 0xbe, 0xbe, 0xf1, 0x0c, 0xbe,
  0x18, 0xa7, 0x4d, 0xbe, 0xd5, 0x62, 0x99, 0xbd, 0x00, 0x69, 0x0a, 0x3e,
  0x4f, 0xa2, 0x9b, 0x3d, 0x1f, 0x18, 0x82, 0x3c, 0x3d, 0x9f, 0xc2, 0x3d,
  0x75, 0x90, 0x09, 0xbe, 0xe4, 0x95, 0x2f, 0xbe, 0x4a, 0x67, 0x20, 0xbe,
  0x7a, 0xa2, 0xb1, 0xbd, 0xca, 0x94, 0xe5, 0x3a, 0x20, 0x0c, 0x35, 0xbe,
  0xc6, 0x99, 0x81, 0xbd, 0x63, 0x7d, 0xce, 0x3d, 0x6b, 0xa8, 0xd7, 0xbd,
  0xf6, 0x39, 0x1f, 0x3d, 0x94, 0x1f, 0x63, 0xbe, 0xfb, 0xe4, 0x42, 0xbe,
  0xef, 0x0e, 0xa6, 0x3d, 0xa9, 0xa8, 0xb6, 0xbd, 0xe9, 0x6d, 0xe0, 0x3b,
  0xd1, 0xb1, 0xb9, 0x3d, 0x02, 0xd7, 0x7e, 0xbd, 0x50, 0x56, 0x7b, 0x3c,
  0x10, 0xee, 0x23, 0xbe, 0xc9, 0xef, 0x53, 0xbe, 0x74, 0xdb, 0x2d, 0xbe,
  0x1f, 0x9d, 0x24, 0xbe, 0x59, 0x81, 0x1e, 0xbd, 0xa6, 0x62, 0x11, 0x3e,
  0x59, 0xa5, 0x1b, 0x3e, 0x84, 0xd2, 0xba, 0xbd, 0xa2, 0x68, 0xce, 0x3d,
  0x58, 0x1a, 0x41, 0x3d, 0x69, 0xab, 0xf9, 0xbc, 0xea, 0xa1, 0xca, 0x3c,
  0xe8, 0xc8, 0x05, 0x3d, 0x17, 0x49, 0xaf, 0x3d, 0xd2, 0x40, 0x69, 0xbe,
  0x7d, 0xc1, 0x0c, 0xbe, 0x99, 0x6f, 0x65, 0xbe, 0xd4, 0x7c, 0xbf, 0xbc,
  0x93, 0x1b, 0xcb, 0x3a, 0xfb, 0x19, 0x43, 0x3e, 0xbd, 0xba, 0x97, 0xbe,
  0x88, 0xf5, 0x09, 0xbc, 0x73, 0x9a, 0x2b, 0x3d, 0x26, 0x79, 0xf9, 0x3d,
  0xfa, 0x10, 0x64, 0xbd, 0x4a, 0x6f, 0xae, 0x3c, 0x88, 0xd3, 0x86, 0xbd,
  0x02, 0xf5, 0xf1, 0x3b, 0x6e, 0xbc, 0x80, 0x3a, 0xa6, 0x20, 0x07, 0xbe,
  0xf6, 0xc4, 0x2f, 0xbe, 0x7e, 0xb7, 0xe5, 0xbc, 0x85, 0x46, 0xa4, 0xbd,
  0x2f, 0x6f, 0xa6, 0xbe, 0x66, 0x9a, 0x30, 0xbd, 0x0e, 0x15, 0x92, 0x3d,
  0xc6, 0x6c, 0x73, 0xbe, 0x4a, 0x1f, 0x13, 0xbd, 0x19, 0xb1, 0x82, 0xbe,
  0x0c, 0xf1, 0x75, 0xbe, 0x69, 0x85, 0xda, 0xbd, 0x25, 0xba, 0xe4, 0xbc,
  0x62, 0x10, 0x8a, 0xbe, 0x7e, 0x65, 0x02, 0x3d, 0xfd, 0x07, 0xde, 0xbd,
  0x6b, 0x94, 0x04, 0xbc, 0x0a, 0x3b, 0x9e, 0xbd, 0xc9, 0x64, 0x45, 0xbc,
  0xf0, 0x01, 0x47, 0xbe, 0xd5, 0x26, 0xa0, 0xbe, 0x45, 0x40, 0xd2, 0x3d,
  0xc0, 0x38, 0x44, 0x3e, 0x5d, 0xda, 0x6e, 0x3c, 0x55, 0x7b, 0x95, 0x3d,
  0x56, 0x66, 0xe1, 0x3c, 0xfa, 0x2b, 0x09, 0xbe, 0x28, 0x36, 0xf8, 0xbd,
  0xa7, 0x6f, 0x9e, 0xbe, 0x9b, 0xb0, 0x49, 0xbd, 0xe7, 0x2d, 0x9c, 0xbc,
  0xf5, 0xc0, 0x46, 0xbe, 0xef, 0x62, 0x65, 0x3c, 0x1c, 0xde, 0xb7, 0xbe,
  0x30, 0x1f, 0xef, 0x3e, 0xcb, 0xcb, 0x0b, 0xbe, 0x9a, 0x0e, 0x35, 0xba,
  0x44, 0x30, 0x89, 0xbe, 0x5b, 0x22, 0xea, 0xbe, 0xe1, 0x3d, 0xbd, 0xbd,
  0xda, 0x81, 0xe7, 0x3d, 0xba, 0x06, 0x08, 0xbd, 0x56, 0x63, 0x0f, 0x3e,
  0x92, 0x9d, 0x1d, 0xbf, 0x6f, 0xa6, 0x61, 0xbd, 0x9b, 0xf3, 0x50, 0xbe,
  0xb5, 0xed, 0xba, 0x3c, 0x8b, 0x39, 0x14, 0x3e, 0x5a, 0xc7, 0x6b, 0x3e,
  0x79, 0x23, 0xdf, 0x3c, 0x8b, 0x4a, 0x97, 0xbd, 0x2a, 0x7a, 0x49, 0xbe,
  0x27, 0x9a, 0xed, 0x3c, 0xb4, 0xb9, 0xb2, 0x3e, 0x8a, 0xfe, 0xb2, 0x3c,
  0x99, 0x3b, 0x40, 0x3d, 0x75, 0xf7, 0x63, 0xbe, 0xa0, 0xfd, 0xa8, 0xbd,
  0xd0, 0xb4, 0xe7, 0xbe, 0x99, 0xb1, 0xce, 0x3e, 0x84, 0xeb, 0x21, 0xbd,
  0x8b, 0x50, 0xcd, 0x3c, 0x3c, 0x32, 0xdd, 0xbe, 0xec, 0x55, 0xc5, 0x3d,
  0x78, 0xbc, 0xc9, 0xbe, 0xfd, 0x8e, 0xec, 0x3d, 0xb6, 0x9d, 0x25, 0xbd,
  0xde, 0x3b, 0x90, 0xbe, 0x61, 0x93, 0x28, 0xbf, 0x4f, 0x8e, 0xaa, 0x3e,
  0xc6, 0x6f, 0x38, 0xbd, 0xef, 0xd7, 0x2c, 0xbd, 0x1b, 0x65, 0xdb, 0xbd,
  0x20, 0x7f, 0x91, 0xbe, 0x80, 0xa5, 0xa8, 0xbe, 0x3c, 0xa4, 0xa7, 0x3e,
  0xf1, 0xbc, 0x2e, 0xbe, 0xee, 0x48, 0x84, 0x3e, 0x20, 0x80, 0x36, 0xbf,
  0x93, 0xa2, 0x41, 0xbe, 0xbe, 0xe4, 0x15, 0xbf, 0x42, 0x3c, 0x66, 0x3c,
  0x11, 0x2a, 0x70, 0xbe, 0xb2, 0x64, 0x7f, 0xbd, 0x62, 0x4a, 0x30, 0xbf,
  0xa5, 0x7f, 0x8a, 0x3d, 0x2b, 0xcf, 0x23, 0xbe, 0xb5, 0x82, 0x5b, 0xbd,
  0xb9, 0x08, 0x8d, 0xbe, 0x25, 0x93, 0x7f, 0xbe, 0xbc, 0xdf, 0xc7, 0xbe,
  0x01, 0xca, 0x89, 0x3d, 0x33, 0x42, 0x78, 0xbe, 0xb6, 0x7b, 0x49, 0x3e,
  0xbf, 0x66, 0x4e, 0xbf, 0x78, 0x85, 0xa3, 0xbe, 0x3d, 0x27, 0xb0, 0xbe,
  0xd2, 0x6c, 0xaa, 0x3d, 0x95, 0xa1, 0x8c, 0x3e, 0x35, 0x59, 0xd2, 0x3d,
  0x25, 0xe5, 0x7b, 0xbe, 0x08, 0xe0, 0x84, 0x3d, 0xcc, 0x3c, 0x88, 0xbc,
  0x0a, 0xa2, 0x58, 0xbc, 0xd5, 0xf6, 0xcc, 0x3e, 0xb9, 0xfb, 0x21, 0xbe,
  0x0d, 0xcf, 0x05, 0x3d, 0xd0, 0xf6, 0x06, 0x3e, 0x0e, 0xf7, 0x68, 0xbe,
  0x3e, 0xe3, 0xf3, 0x3d, 0xba, 0x07, 0xf4, 0xbc, 0x70, 0x74, 0xf3, 0x3d,
  0x4e, 0xb6, 0x67, 0x3e, 0x06, 0x16, 0x9b, 0x3e, 0xd7, 0x20, 0x7c, 0x3e,
  0x4d, 0xff, 0x06, 0x3e, 0x24, 0xfa, 0x67, 0xbd, 0xe5, 0xc1, 0x8c, 0x3e,
  0xcd, 0x7f, 0xfe, 0xbd, 0x3e, 0x27, 0x7b, 0xbd, 0x83, 0x14, 0x13, 0x3e,
  0x3e, 0xcc, 0x4e, 0xbe, 0xc3, 0xf0, 0x56, 0x3e, 0x68, 0x08, 0x83, 0x3e,
  0x11, 0x2f, 0x73, 0xbe, 0xe2, 0x67, 0x54, 0x3e, 0x86, 0xa5, 0x86, 0x3c,
  0xfd, 0x18, 0x7b, 0x3e, 0x52, 0x67, 0x1b, 0x3e, 0x21, 0x5a, 0xee, 0xba,
  0x0b, 0x5d, 0xf7, 0x3d, 0x43, 0x87, 0x3f, 0xbe, 0x6a, 0x35, 0x62, 0x3c,
  0x64, 0x91, 0x3a, 0xbd, 0x3b, 0x6a, 0xcc, 0x3c, 0x59, 0x14, 0x01, 0xbb,
  0x28, 0x9e, 0x5c, 0x3e, 0x6e, 0x2e, 0x3d, 0x3d, 0x90, 0x81, 0x96, 0xbd,
  0xff, 0xd5, 0x8e, 0xbe, 0x98, 0xc8, 0xfc, 0xbd, 0xdb, 0x58, 0xe8, 0xbd,
  0xfb, 0x48, 0x73, 0x3d, 0xdb, 0x90, 0x4c, 0x3e, 0x37, 0xfe, 0xd4, 0xbd,
  0x13, 0x2b, 0xbb, 0xbd, 0xdf, 0xa3, 0x77, 0xbe, 0x13, 0x5e, 0xb6, 0x3d,
  0x47, 0x51, 0xee, 0xbc, 0xde, 0xee, 0x27, 0xbe, 0xb5, 0x3f, 0xc0, 0xbd,
  0xbb, 0xd1, 0x3b, 0x3e, 0x3f, 0x45, 0xc6, 0xbe, 0x66, 0xe4, 0x75, 0xbe,
  0x25, 0xe5, 0x64, 0xbe, 0x32, 0x9b, 0x18, 0x3e, 0x90, 0x0c, 0x9f, 0xbe,
  0x8b, 0x49, 0x3c, 0xbe, 0xe9, 0xa4, 0x68, 0xbd, 0x9e, 0xc5, 0x02, 0xbe,
  0x5e, 0x85, 0x16, 0x3e, 0x02, 0x91, 0x29, 0x3e, 0x83, 0x17, 0x44, 0xbd,
  0x6c, 0xf1, 0xbf, 0x3d, 0xc2, 0x55, 0xec, 0x3d, 0xc2, 0x1b, 0xb6, 0xbd,
  0x2b, 0x35, 0x70, 0x3c, 0xdc, 0xde, 0xa5, 0xbe, 0xf5, 0x21, 0xa9, 0x3e,
  0xa7, 0xf0, 0xa1, 0x3d, 0xff, 0xd2, 0x78, 0xbe, 0x95, 0xc2, 0xed, 0x3c,
  0x1b, 0xb0, 0x75, 0xbe, 0x77, 0xf0, 0x6e, 0xbe, 0x88, 0xcb, 0x90, 0x3d,
  0xb4, 0xc7, 0x86, 0xbe, 0x21, 0x23, 0xe9, 0x3e, 0x2a, 0xfa, 0x73, 0xbd,
  0xde, 0xf4, 0x5e, 0x3e, 0xb4, 0xf2, 0x5d, 0x3e, 0x42, 0xb9, 0x65, 0x3e,
  0xc7, 0xce, 0xc9, 0xbe, 0xf3, 0xce, 0x96, 0x3c, 0xeb, 0x1a, 0xde, 0xbe,
  0x16, 0x70, 0xc9, 0x3e, 0xe9, 0xeb, 0x61, 0x3e, 0x4e, 0x46, 0x25, 0x3c,
  0xe0, 0xc7, 0x59, 0xbd, 0x59, 0xa4, 0x08, 0xbe, 0x98, 0x75, 0x8d, 0xbe,
  0x4c, 0x20, 0xa4, 0x3d, 0x2d, 0x9d, 0x64, 0x3e, 0x58, 0x5b, 0xd3, 0x3e,
  0x3c, 0xc1, 0xc7, 0xbe, 0xd7, 0xba, 0xd6, 0x3e, 0x29, 0x63, 0xe6, 0x3d,
  0x60, 0xff, 0x1e, 0x3e, 0x7c, 0x5d, 0x08, 0xbf, 0xc6, 0xc7, 0x43, 0x3e,
  0xab, 0x53, 0xee, 0xbe, 0x7f, 0x6a, 0xaa, 0x3e, 0x28, 0xee, 0x05, 0x3e,
  0x50, 0x1a, 0xa2, 0x3d, 0x6f, 0xa0, 0x8b, 0xbd, 0xae, 0x24, 0x5c, 0xbe,
  0xe4, 0xe5, 0x9c, 0xbe, 0x7a, 0xa7, 0x2e, 0x3b, 0xd1, 0xfd, 0x5a, 0x3e,
  0x6e, 0x04, 0xc8, 0x3e, 0x5e, 0xf2, 0x64, 0x3b, 0x9a, 0xf9, 0x05, 0x3e,
  0xa2, 0x36, 0x8d, 0xbb, 0x82, 0x49, 0x1d, 0x3e, 0xf4, 0x8f, 0x79, 0xbe,
  0x89, 0xa4, 0x99, 0xbc, 0xdb, 0xad, 0xb4, 0xbe, 0x2a, 0x02, 0xaf, 0x3e,
  0x3d, 0xdd, 0xcd, 0x3d, 0xea, 0xbe, 0xa1, 0x3c, 0x5b, 0x0a, 0xaa, 0x3d,
  0x80, 0x12, 0x14, 0xbe, 0x38, 0xcb, 0x38, 0xbe, 0xb7, 0x0e, 0x11, 0xbd,
  0x1a, 0x89, 0xae, 0x3e, 0x81, 0x8e, 0xb5, 0x3e, 0xc0, 0x7d, 0xb1, 0xbc,
  0xf0, 0x40, 0x26, 0x3e, 0xa8, 0xe5, 0x37, 0x3c, 0xb3, 0x6d, 0x23, 0x3e,
  0xc2, 0xa3, 0xff, 0xbd, 0xa1, 0x42, 0xf0, 0x3d, 0xac, 0x07, 0xd5, 0xbe,
  0x63, 0x46, 0x13, 0x3d, 0x4c, 0x15, 0x3c, 0x3e, 0x65, 0x9b, 0x3d, 0xbe,
  0x03, 0xbb, 0x58, 0x3d, 0xad, 0x2f, 0xb2, 0x3c, 0x71, 0xd4, 0x10, 0x3d,
  0xc7, 0x2a, 0xc8, 0x3c, 0x4d, 0x49, 0x22, 0xbd, 0x08, 0xb2, 0xa6, 0x3e,
  0x6d, 0x24, 0x7d, 0x3a, 0x16, 0xc7, 0x8d, 0x3d, 0xaa, 0x16, 0x8e, 0xbd,
  0x6e, 0x85, 0x2f, 0xbe, 0x37, 0xa2, 0x9f, 0x3e, 0xc7, 0x4d, 0xcc, 0xbd,
  0x59, 0xaf, 0x88, 0xbe, 0x5a, 0xd1, 0xa8, 0x3d, 0x39, 0x55, 0x94, 0xbe,
  0x76, 0x74, 0x94, 0x3c, 0x1d, 0x9c, 0x90, 0x3d, 0xb9, 0xe5, 0x59, 0xbe,
  0x40, 0xd1, 0x55, 0xbd, 0xdc, 0x25, 0x82, 0x3c, 0x43, 0xa6, 0xb2, 0x3d,
  0xdf, 0x92, 0x86, 0x3e, 0x62, 0xfd, 0xff, 0xff, 0x10, 0x00, 0x00, 0x00,
  0x07, 0x00, 0x00, 0x00, 0x14, 0x00, 0x00, 0x00, 0x2c, 0x00, 0x00, 0x00,
  0x02, 0x00, 0x00, 0x00, 0x10, 0x00, 0x00, 0x00, 0x70, 0x00, 0x00, 0x00,
  0x17, 0x00, 0x00, 0x00, 0x73, 0x65, 0x71, 0x75, 0x65, 0x6e, 0x74, 0x69,
  0x61, 0x6c, 0x2f, 0x64, 0x65, 0x6e, 0x73, 0x65, 0x2f, 0x4d, 0x61, 0x74,
  0x4d, 0x75, 0x6c, 0x00, 0xcc, 0xfc, 0xff, 0xff, 0xd6, 0xfd, 0xff, 0xff,
  0x04, 0x00, 0x00, 0x00, 0x08, 0x00, 0x00, 0x00, 0xff, 0xff, 0xff, 0xff,
  0x70, 0x00, 0x00, 0x00, 0x00, 0x00, 0x0e, 0x00, 0x18, 0x00, 0x08, 0x00,
  0x07, 0x00, 0x0c, 0x00, 0x10, 0x00, 0x14, 0x00, 0x0e, 0x00, 0x00, 0x00,
  0x00, 0x00, 0x00, 0x02, 0x10, 0x00, 0x00, 0x00, 0x06, 0x00, 0x00, 0x00,
  0x10, 0x00, 0x00, 0x00, 0x2c, 0x00, 0x00, 0x00, 0x01, 0x00, 0x00, 0x00,
  0x02, 0x00, 0x00, 0x00, 0x18, 0x00, 0x00, 0x00, 0x73, 0x65, 0x71, 0x75,
  0x65, 0x6e, 0x74, 0x69, 0x61, 0x6c, 0x2f, 0x66, 0x6c, 0x61, 0x74, 0x74,
  0x65, 0x6e, 0x2f, 0x43, 0x6f, 0x6e, 0x73, 0x74, 0x00, 0x00, 0x00, 0x00,
  0x34, 0xfd, 0xff, 0xff, 0x3e, 0xfe, 0xff, 0xff, 0x04, 0x00, 0x00, 0x00,
  0x10, 0x00, 0x00, 0x00, 0x78, 0xd9, 0x78, 0x3f, 0xc9, 0x34, 0x66, 0xc0,
  0xf9, 0x47, 0x93, 0xbf, 0x0a, 0xe6, 0x8e, 0x3f, 0x26, 0xfe, 0xff, 0xff,
  0x10, 0x00, 0x00, 0x00, 0x05, 0x00, 0x00, 0x00, 0x10, 0x00, 0x00, 0x00,
  0x44, 0x00, 0x00, 0x00, 0x01, 0x00, 0x00, 0x00, 0x04, 0x00, 0x00, 0x00,
  0x32, 0x00, 0x00, 0x00, 0x73, 0x65, 0x71, 0x75, 0x65, 0x6e, 0x74, 0x69,
  0x61, 0x6c, 0x2f, 0x64, 0x65, 0x6e, 0x73, 0x65, 0x5f, 0x31, 0x2f, 0x42,
  0x69, 0x61, 0x73, 0x41, 0x64, 0x64, 0x2f, 0x52, 0x65, 0x61, 0x64, 0x56,
  0x61, 0x72, 0x69, 0x61, 0x62, 0x6c, 0x65, 0x4f, 0x70, 0x2f, 0x72, 0x65,
  0x73, 0x6f, 0x75, 0x72, 0x63, 0x65, 0x00, 0x00, 0xa8, 0xfd, 0xff, 0xff,
  0xb2, 0xfe, 0xff, 0xff, 0x04, 0x00, 0x00, 0x00, 0x40, 0x00, 0x00, 0x00,
  0xc5, 0x0c, 0xa2, 0xbe, 0x3b, 0x46, 0x4e, 0xbe, 0x8d, 0xcc, 0x38, 0x40,
  0xef, 0xd7, 0x48, 0xbd, 0x34, 0xea, 0xf0, 0x3f, 0x21, 0xa6, 0x09, 0xc0,
  0xf6, 0xe4, 0xde, 0xbf, 0x20, 0xa4, 0xa6, 0xbf, 0x36, 0x05, 0xed, 0xbe,
  0x42, 0x97, 0xe2, 0xbd, 0xcc, 0x1f, 0x32, 0xc0, 0xcb, 0x2f, 0x67, 0xbf,
  0xfc, 0xd6, 0xbb, 0xbe, 0x23, 0xee, 0x94, 0xbe, 0x01, 0x7b, 0xfb, 0xbf,
  0x32, 0xa2, 0xfb, 0xbd, 0xca, 0xfe, 0xff, 0xff, 0x10, 0x00, 0x00, 0x00,
  0x04, 0x00, 0x00, 0x00, 0x10, 0x00, 0x00, 0x00, 0x44, 0x00, 0x00, 0x00,
  0x01, 0x00, 0x00, 0x00, 0x10, 0x00, 0x00, 0x00, 0x30, 0x00, 0x00, 0x00,
  0x73, 0x65, 0x71, 0x75, 0x65, 0x6e, 0x74, 0x69, 0x61, 0x6c, 0x2f, 0x64,
  0x65, 0x6e, 0x73, 0x65, 0x2f, 0x42, 0x69, 0x61, 0x73, 0x41, 0x64, 0x64,
  0x2f, 0x52, 0x65, 0x61, 0x64, 0x56, 0x61, 0x72, 0x69, 0x61, 0x62, 0x6c,
  0x65, 0x4f, 0x70, 0x2f, 0x72, 0x65, 0x73, 0x6f, 0x75, 0x72, 0x63, 0x65,
  0x00, 0x00, 0x00, 0x00, 0x4c, 0xfe, 0xff, 0xff, 0x56, 0xff, 0xff, 0xff,
  0x04, 0x00, 0x00, 0x00, 0x40, 0x00, 0x00, 0x00, 0x51, 0x8e, 0x66, 0xba,
  0x43, 0x86, 0x32, 0xbf, 0x26, 0x68, 0xeb, 0x3a, 0x99, 0x6d, 0xc9, 0x3f,
  0x42, 0xf7, 0x54, 0xb9, 0x9a, 0x26, 0xa7, 0xbb, 0x63, 0x91, 0x00, 0x3f,
  0xc3, 0xb4, 0x8d, 0xbf, 0x73, 0x9d, 0xb8, 0xbf, 0x28, 0x99, 0x1d, 0xbc,
  0x5f, 0xf4, 0xa5, 0xbc, 0x39, 0x98, 0x17, 0xbf, 0x33, 0xc1, 0x6f, 0xbb,
  0x14, 0x43, 0x81, 0xbf, 0x37, 0x26, 0x46, 0xbf, 0xe8, 0xa7, 0xcd, 0xbd,
  0x6e, 0xff, 0xff, 0xff, 0x10, 0x00, 0x00, 0x00, 0x03, 0x00, 0x00, 0x00,
  0x10, 0x00, 0x00, 0x00, 0x48, 0x00, 0x00, 0x00, 0x01, 0x00, 0x00, 0x00,
  0x10, 0x00, 0x00, 0x00, 0x33, 0x00, 0x00, 0x00, 0x73, 0x65, 0x71, 0x75,
  0x65, 0x6e, 0x74, 0x69, 0x61, 0x6c, 0x2f, 0x63, 0x6f, 0x6e, 0x76, 0x32,
  0x64, 0x5f, 0x31, 0x2f, 0x42, 0x69, 0x61, 0x73, 0x41, 0x64, 0x64, 0x2f,
  0x52, 0x65, 0x61, 0x64, 0x56, 0x61, 0x72, 0x69, 0x61, 0x62, 0x6c, 0x65,
  0x4f, 0x70, 0x2f, 0x72, 0x65, 0x73, 0x6f, 0x75, 0x72, 0x63, 0x65, 0x00,
  0x04, 0x00, 0x06, 0x00, 0x04, 0x00, 0x00, 0x00, 0x00, 0x00, 0x06, 0x00,
  0x08, 0x00, 0x04, 0x00, 0x06, 0x00, 0x00, 0x00, 0x04, 0x00, 0x00, 0x00,
  0x20, 0x00, 0x00, 0x00, 0x09, 0xb8, 0xff, 0xbf, 0xe2, 0xf6, 0x61, 0xbf,
  0x28, 0xc0, 0xdc, 0xbe, 0x64, 0xbb, 0xcd, 0xbf, 0x13, 0xf8, 0x1f, 0xbf,
  0x92, 0x57, 0x86, 0xbf, 0x90, 0x82, 0x59, 0xbf, 0xb6, 0x92, 0xa8, 0xbe,
  0x00, 0x00, 0x0e, 0x00, 0x14, 0x00, 0x04, 0x00, 0x00, 0x00, 0x08, 0x00,
  0x0c, 0x00, 0x10, 0x00, 0x0e, 0x00, 0x00, 0x00, 0x10, 0x00, 0x00, 0x00,
  0x02, 0x00, 0x00, 0x00, 0x10, 0x00, 0x00, 0x00, 0x44, 0x00, 0x00, 0x00,
  0x01, 0x00, 0x00, 0x00, 0x08, 0x00, 0x00, 0x00, 0x31, 0x00, 0x00, 0x00,
  0x73, 0x65, 0x71, 0x75, 0x65, 0x6e, 0x74, 0x69, 0x61, 0x6c, 0x2f, 0x63,
  0x6f, 0x6e, 0x76, 0x32, 0x64, 0x2f, 0x42, 0x69, 0x61, 0x73, 0x41, 0x64,
  0x64, 0x2f, 0x52, 0x65, 0x61, 0x64, 0x56, 0x61, 0x72, 0x69, 0x61, 0x62,
  0x6c, 0x65, 0x4f, 0x70, 0x2f, 0x72, 0x65, 0x73, 0x6f, 0x75, 0x72, 0x63,
  0x65, 0x00, 0x00, 0x00, 0x90, 0xff, 0xff, 0xff, 0x14, 0x00, 0x18, 0x00,
  0x04, 0x00, 0x00, 0x00, 0x08, 0x00, 0x0c, 0x00, 0x10, 0x00, 0x00, 0x00,
  0x00, 0x00, 0x14, 0x00, 0x14, 0x00, 0x00, 0x00, 0x14, 0x00, 0x00, 0x00,
  0x01, 0x00, 0x00, 0x00, 0x20, 0x00, 0x00, 0x00, 0x44, 0x00, 0x00, 0x00,
  0x2c, 0x00, 0x00, 0x00, 0x04, 0x00, 0x00, 0x00, 0x01, 0x00, 0x00, 0x00,
  0x40, 0x00, 0x00, 0x00, 0x03, 0x00, 0x00, 0x00, 0x01, 0x00, 0x00, 0x00,
  0x0c, 0x00, 0x00, 0x00, 0x63, 0x6f, 0x6e, 0x76, 0x32, 0x64, 0x5f, 0x69,
  0x6e, 0x70, 0x75, 0x74, 0x00, 0x00, 0x00, 0x00, 0x04, 0x00, 0x00, 0x00,
  0xff, 0xff, 0xff, 0xff, 0x40, 0x00, 0x00, 0x00, 0x03, 0x00, 0x00, 0x00,
  0x01, 0x00, 0x00, 0x00, 0xfc, 0xff, 0xff, 0xff, 0x04, 0x00, 0x04, 0x00,
  0x04, 0x00, 0x00, 0x00
};

unsigned int model_tflite_len = 13120;// Fill the int in `src/model.cc` here